{
  "version": "1.0",
  "truncation": null,
  "padding": null,
  "added_tokens": [
    {
      "id": 676,
      "content": "[SEP]",
      "single_word": false,
      "lstrip": false,
      "rstrip": false,
      "normalized": false,
      "special": true
    },
    {
      "id": 1297,
      "content": "[PAD]",
      "single_word": false,
      "lstrip": false,
      "rstrip": false,
      "normalized": false,
      "special": true
    },
    {
      "id": 2440,
      "content": "[CLS]",
      "single_word": false,
      "lstrip": false,
      "rstrip": false,
      "normalized": false,
      "special": true
    },
    {
      "id": 2754,
      "content": "[UNK]",
      "single_word": false,
      "lstrip": false,
      "rstrip": false,
      "normalized": false,
      "special": true
    },
    {
      "id": 6089,
      "content": "[MASK]",
      "single_word": false,
      "lstrip": false,
      "rstrip": false,
      "normalized": false,
      "special": true
    }
  ],
  "normalizer": {
    "type": "BertNormalizer",
    "clean_text": true,
    "handle_chinese_chars": true,
    "strip_accents": null,
    "lowercase": true
  },
  "pre_tokenizer": {
    "type": "BertPreTokenizer"
  },
  "post_processor": {
    "type": "TemplateProcessing",
    "single": [
      {
        "SpecialToken": {
          "id": "[CLS]",
          "type_id": 0
        }
      },
      {
        "Sequence": {
          "id": "A",
          "type_id": 0
        }
      },
      {
        "SpecialToken": {
          "id": "[SEP]",
          "type_id": 0
        }
      }
    ],
    "pair": [
      {
        "SpecialToken": {
          "id": "[CLS]",
          "type_id": 0
        }
      },
      {
        "Sequence": {
          "id": "A",
          "type_id": 0
        }
      },
      {
        "SpecialToken": {
          "id": "[SEP]",
          "type_id": 0
        }
      },
      {
        "Sequence": {
          "id": "B",
          "type_id": 1
        }
      },
      {
        "SpecialToken": {
          "id": "[SEP]",
          "type_id": 1
        }
      }
    ],
    "special_tokens": {
      "[CLS]": {
        "id": "[CLS]",
        "ids": [
          2440
        ],
        "tokens": [
          "[CLS]"
        ]
      },
      "[SEP]": {
        "id": "[SEP]",
        "ids": [
          676
        ],
        "tokens": [
          "[SEP]"
        ]
      }
    }
  },
  "decoder": {
    "type": "WordPiece",
    "prefix": "##",
    "cleanup": true
  },
  "model": {
    "type": "WordPiece",
    "unk_token": "[UNK]",
    "continuing_subword_prefix": "##",
    "max_input_chars_per_word": 100,
    "vocab": {
      "read": 0,
      "normal": 1,
      "attack": 2,
      "fearing": 3,
      "cream": 4,
      "short": 5,
      "uniform": 6,
      "cliffs": 7,
      "louis": 8,
      "hurry": 9,
      "drop": 10,
      "insisted": 11,
      "faithfully": 12,
      "deposited": 13,
      "climbed": 14,
      "yield": 15,
      "dared": 16,
      "accept": 17,
      "capable": 18,
      "noisy": 19,
      "officers": 20,
      "parting": 21,
      "defeated": 22,
      "but": 23,
      "driving": 24,
      "pour": 25,
      "handsome": 26,
      "fashioned": 27,
      "##p": 28,
      "nevertheless": 29,
      "thirst": 30,
      "capital": 31,
      "lost": 32,
      "horrid": 33,
      "prejudice": 34,
      "proper": 35,
      "eldest": 36,
      "maids": 37,
      "gulf": 38,
      "roared": 39,
      "marilla": 40,
      "title": 41,
      "upstairs": 42,
      "ancestors": 43,
      "0": 44,
      "stared": 45,
      "hook": 46,
      "above": 47,
      "highest": 48,
      "johnson": 49,
      "seven": 50,
      "wedding": 51,
      "acknowledged": 52,
      "bless": 53,
      "veil": 54,
      "freely": 55,
      "reproach": 56,
      "india": 57,
      "vacant": 58,
      "flour": 59,
      "advanced": 60,
      "useful": 61,
      "rang": 62,
      "gorgeous": 63,
      "precise": 64,
      "seats": 65,
      "hospital": 66,
      "invention": 67,
      "colonies": 68,
      "shadowy": 69,
      "principles": 70,
      "traveling": 71,
      "fork": 72,
      "princes": 73,
      "artistic": 74,
      "pierced": 75,
      "foot": 76,
      "blankets": 77,
      "recognised": 78,
      "passed": 79,
      "luck": 80,
      "torture": 81,
      "riches": 82,
      "allowed": 83,
      "##g": 84,
      "exquisite": 85,
      "word": 86,
      "friend's": 87,
      "hundreds": 88,
      "shouldn't": 89,
      "strongly": 90,
      "horrible": 91,
      "elder": 92,
      "thus": 93,
      "silent": 94,
      "ranks": 95,
      "behaviour": 96,
      "senate": 97,
      "conclusion": 98,
      "dusk": 99,
      "ago": 100,
      "factory": 101,
      "holds": 102,
      "yonder": 103,
      "remainder": 104,
      "springing": 105,
      "ascertain": 106,
      "peaks": 107,
      "houses": 108,
      "run": 109,
      "furnish": 110,
      "charming": 111,
      "fierce": 112,
      "wings": 113,
      "commerce": 114,
      "dimly": 115,
      "are": 116,
      "introduce": 117,
      "family": 118,
      "elbow": 119,
      "immediate": 120,
      "stomach": 121,
      "who's": 122,
      "##1": 123,
      "crime": 124,
      "vehicle": 125,
      "pirates": 126,
      "languages": 127,
      "respected": 128,
      "devil": 129,
      "basis": 130,
      "unfortunately": 131,
      "demand": 132,
      "polite": 133,
      "paris": 134,
      "eyed": 135,
      "swallow": 136,
      "sunlight": 137,
      "villefort": 138,
      "meantime": 139,
      "over": 140,
      "suspicions": 141,
      "bounds": 142,
      "persons": 143,
      "bother": 144,
      "kick": 145,
      "christianity": 146,
      "determination": 147,
      "attended": 148,
      "shown": 149,
      "butterfly": 150,
      "hunger": 151,
      "hell": 152,
      "maintained": 153,
      "operations": 154,
      "neatly": 155,
      "weak": 156,
      "lace": 157,
      "hardy": 158,
      "returned": 159,
      "worry": 160,
      "answering": 161,
      "coats": 162,
      "issue": 163,
      "crumbs": 164,
      "attorney": 165,
      "towers": 166,
      "it's": 167,
      "directly": 168,
      "bold": 169,
      "bred": 170,
      "foe": 171,
      "bravely": 172,
      "relating": 173,
      "mysterious": 174,
      "declared": 175,
      "native": 176,
      "keen": 177,
      "refuse": 178,
      "organ": 179,
      "majesty": 180,
      "social": 181,
      "conduct": 182,
      "contemplation": 183,
      "flock": 184,
      "aboard": 185,
      "hill": 186,
      "materials": 187,
      "frightened": 188,
      "away": 189,
      "crowned": 190,
      "safe": 191,
      "sarah": 192,
      "temples": 193,
      "considerably": 194,
      "relations": 195,
      "almighty": 196,
      "tragedy": 197,
      "stately": 198,
      "hall": 199,
      "destroy": 200,
      "finds": 201,
      "blowing": 202,
      "revolution": 203,
      "respect": 204,
      "envy": 205,
      "likely": 206,
      "calculated": 207,
      "just": 208,
      "though": 209,
      "observed": 210,
      "altar": 211,
      "value": 212,
      "knit": 213,
      "begun": 214,
      "servants": 215,
      "la": 216,
      "owe": 217,
      "went": 218,
      "fill": 219,
      "##e": 220,
      "ill": 221,
      "admiration": 222,
      "flushed": 223,
      "admire": 224,
      "faded": 225,
      "nicholas": 226,
      "pleasure": 227,
      "seas": 228,
      "wilson": 229,
      "planned": 230,
      "beg": 231,
      "corners": 232,
      "laura": 233,
      "planet": 234,
      "ho": 235,
      "spake": 236,
      "penny": 237,
      "sobs": 238,
      "earnestly": 239,
      "memories": 240,
      "road": 241,
      "mile": 242,
      "invisible": 243,
      "relief": 244,
      "besides": 245,
      "dreams": 246,
      "spain": 247,
      "granite": 248,
      "faults": 249,
      "chin": 250,
      "bush": 251,
      "some": 252,
      "resolve": 253,
      "hunted": 254,
      "make": 255,
      "prayed": 256,
      "pages": 257,
      "thoughtful": 258,
      "qualities": 259,
      "justify": 260,
      "doctors": 261,
      "maid": 262,
      "van": 263,
      "frequently": 264,
      "beasts": 265,
      "doubted": 266,
      "appropriate": 267,
      "direction": 268,
      "belongs": 269,
      "enemy": 270,
      "dropping": 271,
      "prayer": 272,
      "burnt": 273,
      "asking": 274,
      "induced": 275,
      "railway": 276,
      "occur": 277,
      "stock": 278,
      "wife's": 279,
      "vice": 280,
      "class": 281,
      "rachel": 282,
      "commons": 283,
      "gather": 284,
      "oh": 285,
      "walter": 286,
      "mean": 287,
      "surface": 288,
      "recollect": 289,
      "hush": 290,
      "o'er": 291,
      "closet": 292,
      "cottage": 293,
      "there": 294,
      "combat": 295,
      "first": 296,
      "buy": 297,
      "her": 298,
      "warmly": 299,
      "impressed": 300,
      "depths": 301,
      "struggled": 302,
      "consequences": 303,
      "seated": 304,
      "louder": 305,
      "breathed": 306,
      "seventh": 307,
      "surrounded": 308,
      "painted": 309,
      "hence": 310,
      "adventures": 311,
      "summer": 312,
      "facts": 313,
      "paying": 314,
      "advance": 315,
      "fine": 316,
      "articles": 317,
      "wisdom": 318,
      "gardens": 319,
      "pictures": 320,
      "vegetables": 321,
      "empty": 322,
      "clearly": 323,
      "glowing": 324,
      "stable": 325,
      "helped": 326,
      "infinite": 327,
      "brave": 328,
      "resolution": 329,
      "wing": 330,
      "consider": 331,
      "wages": 332,
      "day's": 333,
      "cultivated": 334,
      "excited": 335,
      "sunny": 336,
      "brook": 337,
      "hospitality": 338,
      "compliment": 339,
      "affections": 340,
      "dogs": 341,
      "seen": 342,
      "gun": 343,
      "marguerite": 344,
      "raise": 345,
      "stillness": 346,
      "lighted": 347,
      "ashamed": 348,
      "herself": 349,
      "all": 350,
      "submit": 351,
      "glances": 352,
      "portrait": 353,
      "opportunity": 354,
      "talked": 355,
      "guilt": 356,
      "tasted": 357,
      "lessons": 358,
      "importance": 359,
      "governess": 360,
      "notions": 361,
      "catching": 362,
      "alliance": 363,
      "accounts": 364,
      "steps": 365,
      "florence": 366,
      "music": 367,
      "containing": 368,
      "assurance": 369,
      "darted": 370,
      "little": 371,
      "fitting": 372,
      "believes": 373,
      "deserve": 374,
      "willingly": 375,
      "levin": 376,
      "sauce": 377,
      "smiles": 378,
      "tyranny": 379,
      "night": 380,
      "perpetual": 381,
      "threatening": 382,
      "free": 383,
      "bye": 384,
      "wild": 385,
      "close": 386,
      "revenge": 387,
      "those": 388,
      "trees": 389,
      "agnes": 390,
      "restrain": 391,
      "firmly": 392,
      "pair": 393,
      "strikes": 394,
      "barbara": 395,
      "crew": 396,
      "supported": 397,
      "resources": 398,
      "suspect": 399,
      "religious": 400,
      "yesterday": 401,
      "hoping": 402,
      "spectacle": 403,
      "decent": 404,
      "indicate": 405,
      "drunken": 406,
      "invitation": 407,
      "plant": 408,
      "wolf": 409,
      "whale": 410,
      "exception": 411,
      "country": 412,
      "battle": 413,
      "pray": 414,
      "skill": 415,
      "co": 416,
      "appeal": 417,
      "pause": 418,
      "fair": 419,
      "blush": 420,
      "frog": 421,
      "another": 422,
      "wasn't": 423,
      "breaking": 424,
      "bruce": 425,
      "cruel": 426,
      "coal": 427,
      "fame": 428,
      "violence": 429,
      "persisted": 430,
      "welcomed": 431,
      "t": 432,
      "uncertain": 433,
      "training": 434,
      "fro": 435,
      "impatiently": 436,
      "sound": 437,
      "savage": 438,
      "successful": 439,
      "statue": 440,
      "sensitive": 441,
      "structure": 442,
      "nonsense": 443,
      "plunge": 444,
      "conspicuous": 445,
      "you'll": 446,
      "commission": 447,
      "particular": 448,
      "secured": 449,
      "sort": 450,
      "drops": 451,
      "refer": 452,
      "milton": 453,
      "lordship": 454,
      "understand": 455,
      "]": 456,
      "lend": 457,
      "smith": 458,
      "sleep": 459,
      "jumping": 460,
      "helpless": 461,
      "blushed": 462,
      "temper": 463,
      "eat": 464,
      "force": 465,
      "painting": 466,
      "nearly": 467,
      "watching": 468,
      "girl's": 469,
      "knees": 470,
      "trousers": 471,
      "strike": 472,
      "lively": 473,
      "occasioned": 474,
      "safely": 475,
      "immediately": 476,
      "representatives": 477,
      "portions": 478,
      "blade": 479,
      "exalted": 480,
      "guards": 481,
      "happiness": 482,
      "david": 483,
      "lasted": 484,
      "roots": 485,
      "board": 486,
      "wegg": 487,
      "evidently": 488,
      "hoarse": 489,
      "bulk": 490,
      "slave": 491,
      "deserted": 492,
      "owned": 493,
      "dick": 494,
      "fence": 495,
      "closing": 496,
      "daily": 497,
      "##7": 498,
      "stopping": 499,
      "party": 500,
      "demands": 501,
      "admirable": 502,
      "alter": 503,
      "eleanor": 504,
      "principal": 505,
      "pleasures": 506,
      "extend": 507,
      "chain": 508,
      "trout": 509,
      "bathed": 510,
      "fingers": 511,
      "bands": 512,
      "average": 513,
      "couch": 514,
      "cities": 515,
      "amelia": 516,
      "sufferings": 517,
      "ships": 518,
      "that's": 519,
      "attentively": 520,
      "##x": 521,
      "realm": 522,
      "supply": 523,
      "greeting": 524,
      "providence": 525,
      "february": 526,
      "mad": 527,
      "wander": 528,
      "beneath": 529,
      "seconds": 530,
      "glancing": 531,
      "maggie": 532,
      "desperate": 533,
      "caught": 534,
      "tyrant": 535,
      "blood": 536,
      "constance": 537,
      "despised": 538,
      "amusement": 539,
      "inner": 540,
      "undertaking": 541,
      "welfare": 542,
      "seek": 543,
      "process": 544,
      "records": 545,
      "digging": 546,
      "nature": 547,
      "week": 548,
      "becoming": 549,
      "quixote": 550,
      "farewell": 551,
      "shine": 552,
      "massive": 553,
      "monday": 554,
      "march": 555,
      "toby": 556,
      "agree": 557,
      "thither": 558,
      "anthea": 559,
      "war": 560,
      "damsel": 561,
      "slender": 562,
      "bade": 563,
      "awakened": 564,
      "ignorance": 565,
      "arise": 566,
      "pit": 567,
      "background": 568,
      "alexey": 569,
      "belong": 570,
      "irritated": 571,
      "dead": 572,
      "he'll": 573,
      "boiling": 574,
      "hour": 575,
      "friend": 576,
      "furiously": 577,
      "nights": 578,
      "heated": 579,
      "become": 580,
      "pie": 581,
      "rows": 582,
      "joyous": 583,
      "calm": 584,
      "desolate": 585,
      "fifth": 586,
      "bachelor": 587,
      "imagination": 588,
      "unseen": 589,
      "shake": 590,
      "solely": 591,
      "comfort": 592,
      "customs": 593,
      "issued": 594,
      "spy": 595,
      "nodding": 596,
      "control": 597,
      "rarely": 598,
      "sweat": 599,
      "amazing": 600,
      "foolish": 601,
      "desire": 602,
      "attending": 603,
      "quickly": 604,
      "husbands": 605,
      "its": 606,
      "##q": 607,
      "heart": 608,
      "nigh": 609,
      "upright": 610,
      "recovered": 611,
      "animal": 612,
      "dozen": 613,
      "altered": 614,
      "convince": 615,
      "theatre": 616,
      "aught": 617,
      "thanked": 618,
      "mystery": 619,
      "forever": 620,
      "formal": 621,
      "terribly": 622,
      "cunning": 623,
      "eating": 624,
      "mamma": 625,
      "~": 626,
      "mode": 627,
      "jungle": 628,
      "missus": 629,
      "secretary": 630,
      "bows": 631,
      "reader": 632,
      "sharp": 633,
      "contrast": 634,
      "whom": 635,
      "picked": 636,
      "front": 637,
      "ardent": 638,
      "loaf": 639,
      "walked": 640,
      "employed": 641,
      "8": 642,
      "organization": 643,
      "balance": 644,
      "totally": 645,
      "begins": 646,
      "expected": 647,
      "falling": 648,
      "solomon": 649,
      "mary": 650,
      "enchanted": 651,
      "adorned": 652,
      "feet": 653,
      "necessity": 654,
      "protect": 655,
      "pleasing": 656,
      "phoenix": 657,
      "action": 658,
      "tail": 659,
      "marie": 660,
      "mechanical": 661,
      "coldly": 662,
      "confess": 663,
      "habits": 664,
      "z": 665,
      "risk": 666,
      "wrote": 667,
      "call": 668,
      "dignified": 669,
      "commenced": 670,
      "honorable": 671,
      "waves": 672,
      "cloud": 673,
      "bars": 674,
      "possess": 675,
      "[SEP]": 676,
      "lodging": 677,
      "arms": 678,
      "concealed": 679,
      "attached": 680,
      "warm": 681,
      "real": 682,
      "rage": 683,
      "seal": 684,
      "earthly": 685,
      "cavern": 686,
      "marius": 687,
      "sinister": 688,
      "crossed": 689,
      "promise": 690,
      "hold": 691,
      "times": 692,
      "york": 693,
      "dust": 694,
      "cries": 695,
      "severely": 696,
      "mistress": 697,
      "regret": 698,
      "bone": 699,
      "observing": 700,
      "goose": 701,
      "trouble": 702,
      "telegraph": 703,
      "travelling": 704,
      "grow": 705,
      "thank": 706,
      "sternly": 707,
      "university": 708,
      "lie": 709,
      "communicate": 710,
      "talent": 711,
      "either": 712,
      "horns": 713,
      "deeply": 714,
      "bond": 715,
      "largest": 716,
      "fogg": 717,
      "appears": 718,
      "especially": 719,
      "really": 720,
      "heartily": 721,
      "tongue": 722,
      "thousand": 723,
      "conscious": 724,
      "defence": 725,
      "tenderly": 726,
      "radiance": 727,
      "trip": 728,
      "tribe": 729,
      "sublime": 730,
      "palace": 731,
      "ball": 732,
      "plenty": 733,
      "almost": 734,
      "flowed": 735,
      "hit": 736,
      "magnificent": 737,
      "third": 738,
      "mill": 739,
      "sincere": 740,
      "margaret's": 741,
      "problem": 742,
      "searched": 743,
      "hats": 744,
      "consisted": 745,
      "experiments": 746,
      "spots": 747,
      "letters": 748,
      "gaze": 749,
      "mammy": 750,
      "three": 751,
      "satin": 752,
      "motives": 753,
      "scrooge": 754,
      "shock": 755,
      "purse": 756,
      "rough": 757,
      "curiously": 758,
      "cell": 759,
      "beds": 760,
      "heaven": 761,
      "volumes": 762,
      "spargo": 763,
      "require": 764,
      "loaded": 765,
      "based": 766,
      "true": 767,
      "rat": 768,
      "pretty": 769,
      "men's": 770,
      "master's": 771,
      "sick": 772,
      "stirring": 773,
      "raised": 774,
      "romantic": 775,
      "basin": 776,
      "erect": 777,
      "rope": 778,
      "embarrassment": 779,
      "supplied": 780,
      "strings": 781,
      "woman": 782,
      "moses": 783,
      "enemy's": 784,
      "why": 785,
      "official": 786,
      "express": 787,
      "stooping": 788,
      "territory": 789,
      "rubbing": 790,
      "fortune": 791,
      "bedroom": 792,
      "wounds": 793,
      "sleepy": 794,
      "dost": 795,
      "much": 796,
      "village": 797,
      "toward": 798,
      "provinces": 799,
      "pride": 800,
      "later": 801,
      "substantial": 802,
      "bag": 803,
      "thin": 804,
      "trifle": 805,
      "mournful": 806,
      "stir": 807,
      "naples": 808,
      "stay": 809,
      "count": 810,
      "description": 811,
      "reality": 812,
      "turn": 813,
      "commands": 814,
      "admission": 815,
      "injustice": 816,
      "dined": 817,
      "demanded": 818,
      "royal": 819,
      "wives": 820,
      "or": 821,
      "fort": 822,
      "mare": 823,
      "enough": 824,
      "what's": 825,
      "maidens": 826,
      "comforted": 827,
      "damp": 828,
      "nora": 829,
      "gladly": 830,
      "whole": 831,
      "doorway": 832,
      "glittering": 833,
      "reserve": 834,
      "inches": 835,
      "park": 836,
      "yer": 837,
      "meant": 838,
      "expenses": 839,
      "philosopher": 840,
      "distant": 841,
      "moves": 842,
      "vegetable": 843,
      "harvest": 844,
      "dry": 845,
      "unjust": 846,
      "artist": 847,
      "distinctly": 848,
      "attempts": 849,
      "hum": 850,
      "drink": 851,
      "quarter": 852,
      "miracle": 853,
      "incapable": 854,
      "arch": 855,
      "look": 856,
      "forest": 857,
      "throw": 858,
      "due": 859,
      "agreement": 860,
      "elsewhere": 861,
      "remedy": 862,
      "height": 863,
      "italy": 864,
      "trial": 865,
      "curve": 866,
      "practical": 867,
      "formidable": 868,
      "mask": 869,
      "the": 870,
      "method": 871,
      "spared": 872,
      "mounting": 873,
      "up": 874,
      "interview": 875,
      "presented": 876,
      "parted": 877,
      "grace": 878,
      "romans": 879,
      "early": 880,
      "stepped": 881,
      "merchants": 882,
      "arrangements": 883,
      "firing": 884,
      "glow": 885,
      "lying": 886,
      "spring": 887,
      "tied": 888,
      "clung": 889,
      "broad": 890,
      "fate": 891,
      "prefer": 892,
      "defined": 893,
      "crack": 894,
      "charles": 895,
      "whoever": 896,
      "replaced": 897,
      "verses": 898,
      "kennedy": 899,
      "p": 900,
      "sold": 901,
      "aye": 902,
      "universe": 903,
      "bake": 904,
      "sets": 905,
      "hearts": 906,
      "forget": 907,
      "rate": 908,
      "expressing": 909,
      "jones": 910,
      "claim": 911,
      "strained": 912,
      "darcy": 913,
      "newspapers": 914,
      "informed": 915,
      "stamped": 916,
      "steward": 917,
      "owed": 918,
      "suffrage": 919,
      "smallest": 920,
      "reports": 921,
      "painter": 922,
      "applied": 923,
      "crush": 924,
      "appetite": 925,
      "sentiments": 926,
      "confused": 927,
      "quivering": 928,
      "beside": 929,
      "drank": 930,
      "estate": 931,
      "blows": 932,
      "ordinary": 933,
      "crimson": 934,
      "parents": 935,
      "surprising": 936,
      "declaration": 937,
      "servant": 938,
      "thanks": 939,
      "situated": 940,
      "population": 941,
      "noticing": 942,
      "waistcoat": 943,
      "subdued": 944,
      "deceived": 945,
      "covered": 946,
      "reveal": 947,
      "criticism": 948,
      "quality": 949,
      "literature": 950,
      "constructed": 951,
      "augustine": 952,
      "frowned": 953,
      "precious": 954,
      "most": 955,
      "supper": 956,
      "latest": 957,
      "neighboring": 958,
      "ned": 959,
      "darkness": 960,
      "essence": 961,
      "vessel": 962,
      "tomorrow": 963,
      "post": 964,
      "millions": 965,
      "dismal": 966,
      "serious": 967,
      "smooth": 968,
      "generous": 969,
      "absurd": 970,
      "despite": 971,
      "know": 972,
      "encounter": 973,
      "brightness": 974,
      "care": 975,
      "debt": 976,
      "relation": 977,
      "colored": 978,
      "closer": 979,
      "hunting": 980,
      "blown": 981,
      "glance": 982,
      "also": 983,
      "six": 984,
      "brightly": 985,
      "myself": 986,
      "vain": 987,
      "anyway": 988,
      "passive": 989,
      "months": 990,
      "proceeding": 991,
      "awful": 992,
      "judging": 993,
      "high": 994,
      "cold": 995,
      "body": 996,
      "abode": 997,
      "divide": 998,
      "fact": 999,
      "opportunities": 1000,
      "cetera": 1001,
      "2": 1002,
      "wall": 1003,
      "yourselves": 1004,
      "passing": 1005,
      "pencroft": 1006,
      "serpent": 1007,
      "position": 1008,
      "root": 1009,
      "privilege": 1010,
      "lizzie": 1011,
      "article": 1012,
      "extent": 1013,
      "treasures": 1014,
      "possible": 1015,
      "midnight": 1016,
      "sensation": 1017,
      "horsemen": 1018,
      "princesses": 1019,
      "direct": 1020,
      "air": 1021,
      "camp": 1022,
      "creek": 1023,
      "difficulty": 1024,
      "remaining": 1025,
      "counting": 1026,
      "had": 1027,
      "june": 1028,
      "legislature": 1029,
      "everybody": 1030,
      "courts": 1031,
      "jimmy": 1032,
      "suspicion": 1033,
      "feared": 1034,
      "presume": 1035,
      "bank": 1036,
      "swimming": 1037,
      "amy": 1038,
      "messages": 1039,
      "jewels": 1040,
      "jasper": 1041,
      "thirteen": 1042,
      "officer": 1043,
      "writes": 1044,
      "particularly": 1045,
      "queen's": 1046,
      "inclined": 1047,
      "meal": 1048,
      "been": 1049,
      "knee": 1050,
      "which": 1051,
      "military": 1052,
      "upset": 1053,
      "don": 1054,
      "cordial": 1055,
      "simplicity": 1056,
      "thrill": 1057,
      "civil": 1058,
      "garrison": 1059,
      "performed": 1060,
      "pirate": 1061,
      "commanding": 1062,
      "quantity": 1063,
      "slight": 1064,
      "ambition": 1065,
      "announced": 1066,
      "victims": 1067,
      "these": 1068,
      "as": 1069,
      "beef": 1070,
      "convention": 1071,
      "learnt": 1072,
      "apron": 1073,
      "brain": 1074,
      "shook": 1075,
      "spotted": 1076,
      "earliest": 1077,
      "acknowledge": 1078,
      "proceeded": 1079,
      "dolls": 1080,
      "mothers": 1081,
      "jaws": 1082,
      "stricken": 1083,
      "break": 1084,
      "mills": 1085,
      "former": 1086,
      "walk": 1087,
      "elegant": 1088,
      "adams": 1089,
      "eternity": 1090,
      "voice": 1091,
      "forgotten": 1092,
      "ambitious": 1093,
      "arranged": 1094,
      "recommend": 1095,
      "kept": 1096,
      "sight": 1097,
      "twelve": 1098,
      "amongst": 1099,
      "gabriel": 1100,
      "dignity": 1101,
      "openly": 1102,
      "objection": 1103,
      "ass": 1104,
      "curls": 1105,
      "we'll": 1106,
      "today": 1107,
      "sufficiently": 1108,
      "gray": 1109,
      "balloon": 1110,
      "victim": 1111,
      "beyond": 1112,
      "seventeen": 1113,
      "excitement": 1114,
      "failure": 1115,
      "fortunately": 1116,
      "angle": 1117,
      "pulse": 1118,
      "blessed": 1119,
      "assigned": 1120,
      "kitchen": 1121,
      "simon": 1122,
      "shrugged": 1123,
      "lingered": 1124,
      "celia": 1125,
      "##5": 1126,
      "whilst": 1127,
      "steamer": 1128,
      "pen": 1129,
      "engine": 1130,
      "suggest": 1131,
      "vaguely": 1132,
      "nerve": 1133,
      "master": 1134,
      "endeavoured": 1135,
      "recover": 1136,
      "fetched": 1137,
      "rested": 1138,
      "invite": 1139,
      "chateau": 1140,
      "nine": 1141,
      "salvation": 1142,
      "chosen": 1143,
      "robbers": 1144,
      "below": 1145,
      "fiercely": 1146,
      "franz": 1147,
      "relative": 1148,
      "meadows": 1149,
      "clara": 1150,
      "wanting": 1151,
      "infantry": 1152,
      "disgrace": 1153,
      "aid": 1154,
      "space": 1155,
      "buttons": 1156,
      "poets": 1157,
      "lawyer": 1158,
      "scorn": 1159,
      "dagger": 1160,
      "thankful": 1161,
      "looking": 1162,
      "tale": 1163,
      "leaning": 1164,
      "senator": 1165,
      "addressed": 1166,
      "managed": 1167,
      "box": 1168,
      "shawl": 1169,
      "allies": 1170,
      "trusted": 1171,
      "house": 1172,
      "purposes": 1173,
      "performance": 1174,
      "committed": 1175,
      "estates": 1176,
      "bible": 1177,
      "pretend": 1178,
      "names": 1179,
      "taking": 1180,
      "constitution": 1181,
      "branch": 1182,
      "pouring": 1183,
      "queer": 1184,
      "wonderful": 1185,
      "map": 1186,
      "late": 1187,
      "release": 1188,
      "expect": 1189,
      "heavens": 1190,
      "temporary": 1191,
      "personality": 1192,
      "considering": 1193,
      "path": 1194,
      "acquainted": 1195,
      "cardinal": 1196,
      "bride": 1197,
      "baron": 1198,
      "lamp": 1199,
      "perceiving": 1200,
      "talking": 1201,
      "eagle": 1202,
      "anything": 1203,
      "wood": 1204,
      "nan": 1205,
      "tide": 1206,
      "passage": 1207,
      "ceremonies": 1208,
      "breast": 1209,
      "somebody": 1210,
      "offers": 1211,
      "quarters": 1212,
      "boots": 1213,
      "shoulder": 1214,
      "didst": 1215,
      "hood": 1216,
      "correct": 1217,
      "drake": 1218,
      "destined": 1219,
      "forbid": 1220,
      "share": 1221,
      "dora": 1222,
      "itself": 1223,
      "oppose": 1224,
      "guard": 1225,
      "attracted": 1226,
      "from": 1227,
      "small": 1228,
      "ice": 1229,
      "capture": 1230,
      "dwelt": 1231,
      "madam": 1232,
      "approached": 1233,
      "disappeared": 1234,
      "relieve": 1235,
      "welcome": 1236,
      "police": 1237,
      "region": 1238,
      "solitude": 1239,
      "minute": 1240,
      "bull": 1241,
      "challenge": 1242,
      "broken": 1243,
      "monte": 1244,
      "cord": 1245,
      "crying": 1246,
      "namely": 1247,
      "colour": 1248,
      "disappear": 1249,
      "robert": 1250,
      "exercises": 1251,
      "procure": 1252,
      "handed": 1253,
      "burn": 1254,
      "duty": 1255,
      "expedition": 1256,
      "meaning": 1257,
      "card": 1258,
      "assure": 1259,
      "virtues": 1260,
      "approved": 1261,
      "ragged": 1262,
      "pet": 1263,
      "recognized": 1264,
      "except": 1265,
      "bronze": 1266,
      "moscow": 1267,
      "recently": 1268,
      "bird": 1269,
      "socrates": 1270,
      "won": 1271,
      "tristram": 1272,
      "committee": 1273,
      "western": 1274,
      "aladdin": 1275,
      "dan": 1276,
      "energy": 1277,
      "hanging": 1278,
      "spear": 1279,
      "clover": 1280,
      "case": 1281,
      "an": 1282,
      "follow": 1283,
      "polly": 1284,
      "recommended": 1285,
      "source": 1286,
      "french": 1287,
      "wind": 1288,
      "suit": 1289,
      "ford": 1290,
      "feel": 1291,
      "golden": 1292,
      "vital": 1293,
      "majority": 1294,
      "adventure": 1295,
      "streams": 1296,
      "[PAD]": 1297,
      "believed": 1298,
      "bigger": 1299,
      "gown": 1300,
      "dreamed": 1301,
      "westward": 1302,
      "preceding": 1303,
      "came": 1304,
      "series": 1305,
      "phenomenon": 1306,
      "descending": 1307,
      "public": 1308,
      "copper": 1309,
      "prey": 1310,
      "paths": 1311,
      "involuntarily": 1312,
      "come": 1313,
      "mirror": 1314,
      "hint": 1315,
      "character": 1316,
      "smiled": 1317,
      "darling": 1318,
      "silently": 1319,
      "picking": 1320,
      "limits": 1321,
      "burden": 1322,
      "magistrate": 1323,
      "retain": 1324,
      "wrinkled": 1325,
      "packet": 1326,
      "by": 1327,
      "crushed": 1328,
      "flag": 1329,
      "wool": 1330,
      "shed": 1331,
      "motion": 1332,
      "behave": 1333,
      "impression": 1334,
      "drag": 1335,
      "plays": 1336,
      "sat": 1337,
      "someone": 1338,
      "eighth": 1339,
      "major": 1340,
      "activity": 1341,
      "teeth": 1342,
      "theirs": 1343,
      "till": 1344,
      "then": 1345,
      "inform": 1346,
      "remind": 1347,
      "##d": 1348,
      "bloody": 1349,
      "shoe": 1350,
      "gleam": 1351,
      "stage": 1352,
      "guilty": 1353,
      "funny": 1354,
      "momentary": 1355,
      "gradually": 1356,
      "both": 1357,
      "nervous": 1358,
      "produced": 1359,
      "far": 1360,
      "backwards": 1361,
      "utmost": 1362,
      "pockets": 1363,
      "largely": 1364,
      "ripe": 1365,
      "flying": 1366,
      "awake": 1367,
      "backs": 1368,
      "scared": 1369,
      "required": 1370,
      "cruelty": 1371,
      "al": 1372,
      "foremost": 1373,
      "mission": 1374,
      "eastern": 1375,
      "retreat": 1376,
      "defend": 1377,
      "neat": 1378,
      "marble": 1379,
      "complaint": 1380,
      "mc": 1381,
      "figure": 1382,
      "tender": 1383,
      "touching": 1384,
      "daniel": 1385,
      "liking": 1386,
      "pure": 1387,
      "mouth": 1388,
      "nod": 1389,
      "cheap": 1390,
      "upward": 1391,
      "sky": 1392,
      "stiff": 1393,
      "get": 1394,
      "beating": 1395,
      "date": 1396,
      "thoughts": 1397,
      "bending": 1398,
      "historical": 1399,
      "earlier": 1400,
      "kid": 1401,
      "doom": 1402,
      "humanity": 1403,
      "unworthy": 1404,
      "pocket": 1405,
      "juice": 1406,
      "troubled": 1407,
      "knight": 1408,
      "bind": 1409,
      "captain": 1410,
      "kindness": 1411,
      "state": 1412,
      "unfortunate": 1413,
      "sore": 1414,
      "propriety": 1415,
      "driven": 1416,
      "agreeable": 1417,
      "grip": 1418,
      "hull": 1419,
      "speech": 1420,
      "innocent": 1421,
      "chairs": 1422,
      "metal": 1423,
      "resting": 1424,
      "lanyard": 1425,
      "sixty": 1426,
      "toil": 1427,
      "even": 1428,
      "seeking": 1429,
      "enterprise": 1430,
      "column": 1431,
      "preparing": 1432,
      "wouldn't": 1433,
      "delicate": 1434,
      "speak": 1435,
      "##t": 1436,
      "doubt": 1437,
      "knife": 1438,
      "whence": 1439,
      "actions": 1440,
      "powers": 1441,
      "whispering": 1442,
      "selected": 1443,
      "belonged": 1444,
      "mounted": 1445,
      "boxes": 1446,
      "cosette": 1447,
      "christians": 1448,
      "fleet": 1449,
      "sultan": 1450,
      "jealous": 1451,
      "astonished": 1452,
      "marrying": 1453,
      "armour": 1454,
      "cotton": 1455,
      "twenty": 1456,
      "hero": 1457,
      "snap": 1458,
      "expectation": 1459,
      "@": 1460,
      "fourteen": 1461,
      "stretched": 1462,
      "doll": 1463,
      "proud": 1464,
      "arrest": 1465,
      "rival": 1466,
      "jar": 1467,
      "perform": 1468,
      "napoleon": 1469,
      "marked": 1470,
      "drew": 1471,
      "overhead": 1472,
      "sent": 1473,
      "harm": 1474,
      "finish": 1475,
      "roast": 1476,
      "mutual": 1477,
      "check": 1478,
      "curious": 1479,
      "captain's": 1480,
      "sack": 1481,
      "*": 1482,
      "evident": 1483,
      "rush": 1484,
      "rising": 1485,
      "sounded": 1486,
      "prisoner": 1487,
      "because": 1488,
      "countess": 1489,
      "years": 1490,
      "sorts": 1491,
      "feeling": 1492,
      "elderly": 1493,
      "hanged": 1494,
      "sobbing": 1495,
      "o": 1496,
      "wealth": 1497,
      "mass": 1498,
      "sphere": 1499,
      "backward": 1500,
      "brown": 1501,
      "piece": 1502,
      "woman's": 1503,
      "twisted": 1504,
      "liberal": 1505,
      "sentiment": 1506,
      "fred": 1507,
      "acts": 1508,
      "bunch": 1509,
      "sailing": 1510,
      "unknown": 1511,
      "wit": 1512,
      "eggs": 1513,
      "matthew": 1514,
      "successfully": 1515,
      "wrought": 1516,
      "minutes": 1517,
      "neglect": 1518,
      "merely": 1519,
      "contest": 1520,
      "quietly": 1521,
      "suddenly": 1522,
      "lesson": 1523,
      "expressions": 1524,
      "instruction": 1525,
      "pleasant": 1526,
      "peering": 1527,
      "cheek": 1528,
      "aside": 1529,
      "county": 1530,
      "mischief": 1531,
      "lady": 1532,
      "soup": 1533,
      "re": 1534,
      "kill": 1535,
      "bones": 1536,
      "wishes": 1537,
      "henry": 1538,
      "desirous": 1539,
      "existence": 1540,
      "kissing": 1541,
      "ride": 1542,
      "woke": 1543,
      "report": 1544,
      "bringing": 1545,
      "hated": 1546,
      "instead": 1547,
      "stephen": 1548,
      "##n": 1549,
      "aroused": 1550,
      "gracious": 1551,
      "vote": 1552,
      "met": 1553,
      "device": 1554,
      "sailed": 1555,
      "impressions": 1556,
      "turtle": 1557,
      "buried": 1558,
      "certainly": 1559,
      "acquire": 1560,
      "lid": 1561,
      "affairs": 1562,
      "pressure": 1563,
      "fear": 1564,
      "shouts": 1565,
      "sinking": 1566,
      "took": 1567,
      "pointing": 1568,
      "faster": 1569,
      "dread": 1570,
      "do": 1571,
      "day": 1572,
      "wheels": 1573,
      "career": 1574,
      "enjoying": 1575,
      "jim": 1576,
      "approval": 1577,
      "lion": 1578,
      "sad": 1579,
      "priest": 1580,
      "strolled": 1581,
      "andrew": 1582,
      "flames": 1583,
      "crest": 1584,
      "separate": 1585,
      "rocks": 1586,
      "}": 1587,
      "ruler": 1588,
      "oath": 1589,
      "lighter": 1590,
      "veins": 1591,
      "played": 1592,
      "weapons": 1593,
      "four": 1594,
      "unity": 1595,
      "heroic": 1596,
      "motor": 1597,
      ">": 1598,
      "entitled": 1599,
      "gaily": 1600,
      "arrested": 1601,
      "shall": 1602,
      "no": 1603,
      "various": 1604,
      "exist": 1605,
      "growled": 1606,
      "works": 1607,
      "landed": 1608,
      "wondered": 1609,
      "admiral": 1610,
      "meat": 1611,
      "pipes": 1612,
      "season": 1613,
      "meet": 1614,
      "j": 1615,
      "god's": 1616,
      "beforehand": 1617,
      "wire": 1618,
      "merchant": 1619,
      "silver": 1620,
      "slightest": 1621,
      "strongest": 1622,
      "primitive": 1623,
      "twilight": 1624,
      "stayed": 1625,
      "fortunes": 1626,
      "lacking": 1627,
      "colony": 1628,
      "doubtful": 1629,
      "i'd": 1630,
      "daring": 1631,
      "abandon": 1632,
      "dispute": 1633,
      "upwards": 1634,
      "perfection": 1635,
      "shaped": 1636,
      "claws": 1637,
      "##6": 1638,
      "requires": 1639,
      "began": 1640,
      "frost": 1641,
      "hammer": 1642,
      "borne": 1643,
      "barely": 1644,
      "danglars": 1645,
      "stand": 1646,
      "complete": 1647,
      "match": 1648,
      "chimney": 1649,
      "speaks": 1650,
      "loose": 1651,
      "herbert": 1652,
      "emotion": 1653,
      "approaching": 1654,
      "headed": 1655,
      "advancing": 1656,
      "stories": 1657,
      "worked": 1658,
      "catholic": 1659,
      "crash": 1660,
      "everlasting": 1661,
      "peasants": 1662,
      "record": 1663,
      "suppose": 1664,
      "hast": 1665,
      "manifest": 1666,
      "varied": 1667,
      "egg": 1668,
      "obedience": 1669,
      "halt": 1670,
      "nearest": 1671,
      "inquiries": 1672,
      "pine": 1673,
      "apart": 1674,
      "burst": 1675,
      "letter": 1676,
      "bewildered": 1677,
      "7": 1678,
      "judges": 1679,
      "non": 1680,
      "personal": 1681,
      "steam": 1682,
      "bound": 1683,
      "neck": 1684,
      "appointed": 1685,
      "hid": 1686,
      "l": 1687,
      "weighed": 1688,
      "samuel": 1689,
      "superiority": 1690,
      "level": 1691,
      "mourning": 1692,
      "caesar": 1693,
      "amazement": 1694,
      "resentment": 1695,
      "afford": 1696,
      "mark": 1697,
      "fed": 1698,
      "nothing": 1699,
      "wide": 1700,
      "responsible": 1701,
      "chap": 1702,
      "prince's": 1703,
      "delay": 1704,
      "fancy": 1705,
      "regularly": 1706,
      "ladies": 1707,
      "heights": 1708,
      "idea": 1709,
      "voices": 1710,
      "families": 1711,
      "dancing": 1712,
      "shores": 1713,
      "richard": 1714,
      "services": 1715,
      "hers": 1716,
      "punishment": 1717,
      "murmured": 1718,
      "higher": 1719,
      "singular": 1720,
      "hadn't": 1721,
      "reckon": 1722,
      "results": 1723,
      "disappointment": 1724,
      "hole": 1725,
      "everyone": 1726,
      "trifling": 1727,
      "adopt": 1728,
      "thief": 1729,
      "she": 1730,
      "/": 1731,
      "bells": 1732,
      "need": 1733,
      "hut": 1734,
      "apt": 1735,
      "hot": 1736,
      "housekeeper": 1737,
      "saved": 1738,
      "images": 1739,
      "mention": 1740,
      "battles": 1741,
      "instantly": 1742,
      "fishes": 1743,
      "piled": 1744,
      "banks": 1745,
      "does": 1746,
      "queen": 1747,
      "included": 1748,
      "cattle": 1749,
      "enjoy": 1750,
      "explanation": 1751,
      "maiden": 1752,
      "attentive": 1753,
      "promptly": 1754,
      "bitter": 1755,
      "smote": 1756,
      "whenever": 1757,
      "grandfather": 1758,
      "anxiously": 1759,
      "haired": 1760,
      "god": 1761,
      "ascended": 1762,
      "response": 1763,
      "operation": 1764,
      "contempt": 1765,
      "ponies": 1766,
      "cars": 1767,
      "pool": 1768,
      "wednesday": 1769,
      "lands": 1770,
      "coach": 1771,
      "raw": 1772,
      "salute": 1773,
      "problems": 1774,
      "happier": 1775,
      "monks": 1776,
      "stripped": 1777,
      "memory": 1778,
      "slope": 1779,
      "ray": 1780,
      "afraid": 1781,
      "umbrella": 1782,
      "origin": 1783,
      "that": 1784,
      "chicken": 1785,
      "shelf": 1786,
      "top": 1787,
      "base": 1788,
      "africa": 1789,
      "scotland": 1790,
      "happens": 1791,
      "cheer": 1792,
      "beauty": 1793,
      "outer": 1794,
      "comfortable": 1795,
      "cradle": 1796,
      "happening": 1797,
      "brandy": 1798,
      "cabin": 1799,
      "sink": 1800,
      "imposed": 1801,
      "risen": 1802,
      "crazy": 1803,
      "noted": 1804,
      "born": 1805,
      "hoofs": 1806,
      "therein": 1807,
      "vivid": 1808,
      "principle": 1809,
      "leagues": 1810,
      "increased": 1811,
      "yard": 1812,
      "parish": 1813,
      "extending": 1814,
      "appearances": 1815,
      "vanished": 1816,
      "agitated": 1817,
      "conquered": 1818,
      "alive": 1819,
      "vainly": 1820,
      "keep": 1821,
      "whispered": 1822,
      "team": 1823,
      "less": 1824,
      "valjean": 1825,
      "experiment": 1826,
      "holland": 1827,
      "spinning": 1828,
      "gang": 1829,
      "bow": 1830,
      "contents": 1831,
      "andy": 1832,
      "only": 1833,
      "trying": 1834,
      "gently": 1835,
      "statement": 1836,
      "each": 1837,
      "john": 1838,
      "rescue": 1839,
      "acted": 1840,
      "aspect": 1841,
      "exertion": 1842,
      "extensive": 1843,
      "imperfect": 1844,
      "rest": 1845,
      "choose": 1846,
      "steal": 1847,
      "man": 1848,
      "lieutenant": 1849,
      "equality": 1850,
      "fore": 1851,
      "english": 1852,
      "efforts": 1853,
      "recognize": 1854,
      "crust": 1855,
      "industry": 1856,
      "steadily": 1857,
      "dash": 1858,
      "tower": 1859,
      "chamber": 1860,
      "wore": 1861,
      "america": 1862,
      "rid": 1863,
      "tend": 1864,
      "commanded": 1865,
      "clement": 1866,
      "wiped": 1867,
      "venus": 1868,
      "disagreeable": 1869,
      "depends": 1870,
      "homeward": 1871,
      "eleven": 1872,
      "worn": 1873,
      "##f": 1874,
      "landlord": 1875,
      "wherein": 1876,
      "selfish": 1877,
      "retire": 1878,
      "belle": 1879,
      "final": 1880,
      "endure": 1881,
      "shaking": 1882,
      "print": 1883,
      "getting": 1884,
      "reason": 1885,
      "perfectly": 1886,
      "favorite": 1887,
      "addressing": 1888,
      "fever": 1889,
      "sweetness": 1890,
      "cleared": 1891,
      "study": 1892,
      "atmosphere": 1893,
      "remember": 1894,
      "trembled": 1895,
      "questions": 1896,
      "band": 1897,
      "awhile": 1898,
      "morrow": 1899,
      "decision": 1900,
      "minister": 1901,
      "domestic": 1902,
      "dress": 1903,
      "seventy": 1904,
      "savages": 1905,
      "winchester": 1906,
      "consideration": 1907,
      "province": 1908,
      "treaty": 1909,
      "lack": 1910,
      "lodgings": 1911,
      "work": 1912,
      "frightful": 1913,
      "actually": 1914,
      "sister's": 1915,
      "considered": 1916,
      "move": 1917,
      "swinging": 1918,
      "restless": 1919,
      "wits": 1920,
      "flash": 1921,
      "discharge": 1922,
      "nearer": 1923,
      "presents": 1924,
      "prospect": 1925,
      "hat": 1926,
      "city": 1927,
      "handful": 1928,
      "reply": 1929,
      "mademoiselle": 1930,
      "won't": 1931,
      "pope": 1932,
      "knights": 1933,
      "remarks": 1934,
      "hand": 1935,
      "egyptian": 1936,
      "japanese": 1937,
      "feeding": 1938,
      "wicked": 1939,
      "town": 1940,
      "tempest": 1941,
      "treasury": 1942,
      "tearing": 1943,
      "federal": 1944,
      "grandmother": 1945,
      "moss": 1946,
      "local": 1947,
      "constantly": 1948,
      "related": 1949,
      "navy": 1950,
      "argue": 1951,
      "next": 1952,
      "campaign": 1953,
      "parliament": 1954,
      "stockings": 1955,
      "sighed": 1956,
      "pint": 1957,
      "agreed": 1958,
      "beach": 1959,
      "durham": 1960,
      "quite": 1961,
      "eloquence": 1962,
      "they're": 1963,
      "kit": 1964,
      "powder": 1965,
      "tracks": 1966,
      "encouragement": 1967,
      "lady's": 1968,
      "gay": 1969,
      "seems": 1970,
      "stretching": 1971,
      "romance": 1972,
      "fetch": 1973,
      "tie": 1974,
      "fairies": 1975,
      "rag": 1976,
      "assert": 1977,
      "chest": 1978,
      "intending": 1979,
      "moral": 1980,
      "coast": 1981,
      "exhausted": 1982,
      "favor": 1983,
      "carelessly": 1984,
      "correspondence": 1985,
      "prepare": 1986,
      "shared": 1987,
      "dearest": 1988,
      "ample": 1989,
      "eyebrows": 1990,
      "reckless": 1991,
      "tip": 1992,
      "wreck": 1993,
      "erected": 1994,
      "troop": 1995,
      "sensible": 1996,
      "breaks": 1997,
      "educated": 1998,
      "polished": 1999,
      "captive": 2000,
      "food": 2001,
      "store": 2002,
      "unexpectedly": 2003,
      "signed": 2004,
      "rub": 2005,
      "chose": 2006,
      "intellectual": 2007,
      "properly": 2008,
      "richmond": 2009,
      "days": 2010,
      "pupil": 2011,
      "remove": 2012,
      "me": 2013,
      "hay": 2014,
      "quarrel": 2015,
      "figures": 2016,
      "believe": 2017,
      "fragments": 2018,
      "souls": 2019,
      "shan't": 2020,
      "breathless": 2021,
      "understanding": 2022,
      "stole": 2023,
      "nuts": 2024,
      "bet": 2025,
      "logs": 2026,
      "single": 2027,
      "affect": 2028,
      "heap": 2029,
      "sand": 2030,
      "robe": 2031,
      "eliza": 2032,
      "alyosha": 2033,
      "shades": 2034,
      "(": 2035,
      "content": 2036,
      "rounded": 2037,
      "affection": 2038,
      "reasons": 2039,
      "opens": 2040,
      "corporal": 2041,
      "forgiven": 2042,
      "his": 2043,
      "father": 2044,
      "thee": 2045,
      "asserted": 2046,
      "duchess": 2047,
      "niece": 2048,
      "novel": 2049,
      "eaten": 2050,
      "calls": 2051,
      "curled": 2052,
      "folds": 2053,
      "render": 2054,
      "gospel": 2055,
      "efficient": 2056,
      "courtesy": 2057,
      "lane": 2058,
      "amid": 2059,
      "spectacles": 2060,
      "afflicted": 2061,
      "loss": 2062,
      "divine": 2063,
      "lions": 2064,
      "earnest": 2065,
      "lucy": 2066,
      "definite": 2067,
      "running": 2068,
      "throat": 2069,
      "central": 2070,
      "weakness": 2071,
      "breakfast": 2072,
      "groaned": 2073,
      "increasing": 2074,
      "murder": 2075,
      "absent": 2076,
      "catch": 2077,
      "weeping": 2078,
      "errand": 2079,
      "array": 2080,
      "happily": 2081,
      "stop": 2082,
      "custom": 2083,
      "coming": 2084,
      "drinking": 2085,
      "stormy": 2086,
      "cost": 2087,
      "abroad": 2088,
      "mountain": 2089,
      "widow": 2090,
      "spoil": 2091,
      "brute": 2092,
      "jump": 2093,
      "subtle": 2094,
      "couldn't": 2095,
      "chauvelin": 2096,
      "sticks": 2097,
      "keys": 2098,
      "looks": 2099,
      "there's": 2100,
      "exactly": 2101,
      "recall": 2102,
      "assent": 2103,
      "farmer": 2104,
      "pink": 2105,
      "different": 2106,
      "tobacco": 2107,
      "remarked": 2108,
      "probable": 2109,
      "loyal": 2110,
      "concluded": 2111,
      "gallop": 2112,
      "lawyers": 2113,
      "system": 2114,
      "frankly": 2115,
      "throwing": 2116,
      "worried": 2117,
      "always": 2118,
      "moment's": 2119,
      "gathered": 2120,
      "gold": 2121,
      "violent": 2122,
      "pulling": 2123,
      "tom": 2124,
      "element": 2125,
      "serve": 2126,
      "we'd": 2127,
      "honor": 2128,
      "approach": 2129,
      "feed": 2130,
      "harry": 2131,
      "newly": 2132,
      "cards": 2133,
      "julia": 2134,
      "pull": 2135,
      "conscience": 2136,
      "interesting": 2137,
      "ninth": 2138,
      "startled": 2139,
      "schools": 2140,
      "rude": 2141,
      "referred": 2142,
      "said": 2143,
      "than": 2144,
      "piano": 2145,
      "flashed": 2146,
      "visible": 2147,
      "plants": 2148,
      "requested": 2149,
      "scraps": 2150,
      "autumn": 2151,
      "onward": 2152,
      "hate": 2153,
      "might": 2154,
      "paper": 2155,
      "hamilton": 2156,
      "walking": 2157,
      "practically": 2158,
      "crimes": 2159,
      "heavy": 2160,
      "realized": 2161,
      "german": 2162,
      "provide": 2163,
      "fishing": 2164,
      "fresh": 2165,
      "slew": 2166,
      "gravity": 2167,
      "surgeon": 2168,
      "trunk": 2169,
      "back": 2170,
      "isn't": 2171,
      "naked": 2172,
      "rendered": 2173,
      "past": 2174,
      "suffice": 2175,
      "contains": 2176,
      "roaring": 2177,
      "offices": 2178,
      "orders": 2179,
      "here's": 2180,
      "pieces": 2181,
      "lap": 2182,
      "raft": 2183,
      "longing": 2184,
      "gallery": 2185,
      "love": 2186,
      "ground": 2187,
      "hearted": 2188,
      "expression": 2189,
      "staff": 2190,
      "narrow": 2191,
      "imagine": 2192,
      "preparations": 2193,
      "curtains": 2194,
      "peered": 2195,
      "they": 2196,
      "and": 2197,
      "telephone": 2198,
      "aramis": 2199,
      "mixed": 2200,
      "brighter": 2201,
      "politics": 2202,
      "lined": 2203,
      "forty": 2204,
      "screamed": 2205,
      "stone": 2206,
      "heat": 2207,
      "begged": 2208,
      "wholly": 2209,
      "lovers": 2210,
      "bed": 2211,
      "senses": 2212,
      "southern": 2213,
      "glanced": 2214,
      "dragon": 2215,
      "matters": 2216,
      "feathers": 2217,
      "well": 2218,
      "acid": 2219,
      "luncheon": 2220,
      "directions": 2221,
      "crept": 2222,
      "asks": 2223,
      "ingenious": 2224,
      "hidden": 2225,
      "outside": 2226,
      "intimate": 2227,
      "together": 2228,
      "declined": 2229,
      "negroes": 2230,
      "vision": 2231,
      "hare": 2232,
      "bills": 2233,
      "truly": 2234,
      "sheer": 2235,
      "sins": 2236,
      "she'll": 2237,
      "widely": 2238,
      "pot": 2239,
      "liberty": 2240,
      "pattern": 2241,
      "merry": 2242,
      "ashore": 2243,
      "swam": 2244,
      "showing": 2245,
      "bottle": 2246,
      "cheese": 2247,
      "sixteen": 2248,
      "shepherd": 2249,
      "priscilla": 2250,
      "july": 2251,
      "plot": 2252,
      "security": 2253,
      "inspector": 2254,
      "seemed": 2255,
      "concert": 2256,
      "whipped": 2257,
      "rights": 2258,
      "consolation": 2259,
      "light": 2260,
      "smell": 2261,
      "association": 2262,
      "increase": 2263,
      "tears": 2264,
      "arose": 2265,
      "roads": 2266,
      "balls": 2267,
      "clean": 2268,
      "y": 2269,
      "brandon": 2270,
      "brains": 2271,
      "kindred": 2272,
      "clapped": 2273,
      "occurred": 2274,
      "curate": 2275,
      "sides": 2276,
      "misery": 2277,
      "likewise": 2278,
      "carlyle": 2279,
      "stamp": 2280,
      "esther": 2281,
      "doth": 2282,
      "furious": 2283,
      "storms": 2284,
      "harold": 2285,
      "fortunate": 2286,
      "utter": 2287,
      "admitted": 2288,
      "neighbors": 2289,
      "mankind": 2290,
      "convey": 2291,
      "can": 2292,
      "low": 2293,
      "beast": 2294,
      "contented": 2295,
      "wanted": 2296,
      "flame": 2297,
      "loves": 2298,
      "regarding": 2299,
      ",": 2300,
      "zeal": 2301,
      "showed": 2302,
      "discovering": 2303,
      "threw": 2304,
      "until": 2305,
      "manage": 2306,
      "sport": 2307,
      "indignation": 2308,
      "bits": 2309,
      "seized": 2310,
      "tad": 2311,
      "rays": 2312,
      "inquired": 2313,
      "service": 2314,
      "liable": 2315,
      "relate": 2316,
      "hercules": 2317,
      "we've": 2318,
      "trot": 2319,
      "resistance": 2320,
      "audible": 2321,
      "rider": 2322,
      "waving": 2323,
      "search": 2324,
      "our": 2325,
      "opposed": 2326,
      "forbidden": 2327,
      "army": 2328,
      "father's": 2329,
      "term": 2330,
      "mansion": 2331,
      "sounds": 2332,
      "heroes": 2333,
      "bad": 2334,
      "represented": 2335,
      "gas": 2336,
      "lecture": 2337,
      "oil": 2338,
      "inn": 2339,
      "communication": 2340,
      "literally": 2341,
      "persuade": 2342,
      "be": 2343,
      "staring": 2344,
      "throughout": 2345,
      "capacity": 2346,
      "negative": 2347,
      "of": 2348,
      "glory": 2349,
      "slavery": 2350,
      "bear": 2351,
      "although": 2352,
      "smile": 2353,
      "furniture": 2354,
      "income": 2355,
      "admiring": 2356,
      "ledge": 2357,
      "sooner": 2358,
      "missing": 2359,
      "meadow": 2360,
      "amount": 2361,
      "chanced": 2362,
      "bessy": 2363,
      "mild": 2364,
      "lower": 2365,
      "grown": 2366,
      "movements": 2367,
      "spark": 2368,
      "distinct": 2369,
      "forgetting": 2370,
      "ugly": 2371,
      "audience": 2372,
      "mister": 2373,
      "flowers": 2374,
      "timber": 2375,
      "bluff": 2376,
      "large": 2377,
      "g": 2378,
      "busy": 2379,
      "characters": 2380,
      "thing": 2381,
      "uncomfortable": 2382,
      "i'm": 2383,
      "scotch": 2384,
      "round": 2385,
      "active": 2386,
      "connection": 2387,
      "friends": 2388,
      "dame": 2389,
      "beautiful": 2390,
      "thyself": 2391,
      "older": 2392,
      "division": 2393,
      "loud": 2394,
      "naughty": 2395,
      "parlour": 2396,
      "goes": 2397,
      "soft": 2398,
      "indian": 2399,
      "prevented": 2400,
      "fond": 2401,
      "price": 2402,
      "now": 2403,
      "yo": 2404,
      "nephew": 2405,
      "louise": 2406,
      "stooped": 2407,
      "uses": 2408,
      "trade": 2409,
      "act": 2410,
      "grieved": 2411,
      "reared": 2412,
      "pearl": 2413,
      "imagined": 2414,
      "christian": 2415,
      "shillings": 2416,
      "dig": 2417,
      "wilderness": 2418,
      "temperature": 2419,
      "earth": 2420,
      "establishment": 2421,
      "combination": 2422,
      "course": 2423,
      "words": 2424,
      "taken": 2425,
      "command": 2426,
      "boldly": 2427,
      "supposing": 2428,
      "talents": 2429,
      "private": 2430,
      "united": 2431,
      "wake": 2432,
      "clearing": 2433,
      "coachman": 2434,
      "dog": 2435,
      "streets": 2436,
      "exact": 2437,
      "fain": 2438,
      "fell": 2439,
      "[CLS]": 2440,
      "morning": 2441,
      "natural": 2442,
      "scattered": 2443,
      "completely": 2444,
      "money": 2445,
      "convenient": 2446,
      "wet": 2447,
      "satisfy": 2448,
      "november": 2449,
      "elements": 2450,
      "yellow": 2451,
      "notice": 2452,
      "francs": 2453,
      "thick": 2454,
      "follows": 2455,
      "loved": 2456,
      "acres": 2457,
      "footsteps": 2458,
      "liked": 2459,
      "ornament": 2460,
      "knowing": 2461,
      "possessed": 2462,
      "longer": 2463,
      "improved": 2464,
      "faculties": 2465,
      "holy": 2466,
      "doubts": 2467,
      "glad": 2468,
      "within": 2469,
      "sin": 2470,
      "sweep": 2471,
      "remains": 2472,
      "proportion": 2473,
      "fantastic": 2474,
      "designed": 2475,
      "moonlight": 2476,
      "edith": 2477,
      "london": 2478,
      "horse's": 2479,
      "delicious": 2480,
      "madness": 2481,
      "wants": 2482,
      "conceive": 2483,
      "doing": 2484,
      "hopeless": 2485,
      "formerly": 2486,
      "decided": 2487,
      "property": 2488,
      "rings": 2489,
      "hen": 2490,
      "virtuous": 2491,
      "wrong": 2492,
      "afforded": 2493,
      "fallen": 2494,
      "humming": 2495,
      "wept": 2496,
      "portion": 2497,
      "armed": 2498,
      "wandering": 2499,
      "carrying": 2500,
      "stuck": 2501,
      "willing": 2502,
      "wish": 2503,
      "##i": 2504,
      "learn": 2505,
      "disappointed": 2506,
      "fury": 2507,
      "wherever": 2508,
      "roger": 2509,
      "anchor": 2510,
      "unnecessary": 2511,
      "rushing": 2512,
      "phenomena": 2513,
      "beggar": 2514,
      "excellency": 2515,
      "paused": 2516,
      "type": 2517,
      "genuine": 2518,
      "full": 2519,
      "doesn't": 2520,
      "fighting": 2521,
      "remembered": 2522,
      "hair": 2523,
      "list": 2524,
      "punished": 2525,
      "panic": 2526,
      "repeated": 2527,
      "drive": 2528,
      "latin": 2529,
      "9": 2530,
      "failing": 2531,
      "sylvia": 2532,
      "warning": 2533,
      "tone": 2534,
      "step": 2535,
      "man's": 2536,
      "tricks": 2537,
      "allah": 2538,
      "continuing": 2539,
      "dislike": 2540,
      "impatient": 2541,
      "feast": 2542,
      "masses": 2543,
      "duck": 2544,
      "pain": 2545,
      "watch": 2546,
      "stands": 2547,
      "deliver": 2548,
      "bar": 2549,
      "dismay": 2550,
      "philadelphia": 2551,
      "impulse": 2552,
      "acting": 2553,
      "##m": 2554,
      "fifty": 2555,
      "mars": 2556,
      "norman": 2557,
      "holiday": 2558,
      "garments": 2559,
      "centuries": 2560,
      "attachment": 2561,
      "creation": 2562,
      "v": 2563,
      "fires": 2564,
      "named": 2565,
      "twice": 2566,
      "compass": 2567,
      "diamonds": 2568,
      "possessions": 2569,
      "roused": 2570,
      "lodge": 2571,
      "let": 2572,
      "castle": 2573,
      "opened": 2574,
      "agent": 2575,
      "soldiers": 2576,
      "planted": 2577,
      "drove": 2578,
      "secretly": 2579,
      "makes": 2580,
      "boston": 2581,
      "side": 2582,
      "touched": 2583,
      "crop": 2584,
      "window": 2585,
      "skirt": 2586,
      "desirable": 2587,
      "quest": 2588,
      "sake": 2589,
      "strain": 2590,
      "dwell": 2591,
      "arrows": 2592,
      "accomplished": 2593,
      "weapon": 2594,
      "hang": 2595,
      "glare": 2596,
      "stood": 2597,
      "cristo": 2598,
      "lovely": 2599,
      "torment": 2600,
      "gossip": 2601,
      "ease": 2602,
      "paint": 2603,
      "owners": 2604,
      "pardon": 2605,
      "echoed": 2606,
      "fast": 2607,
      "neighbor": 2608,
      "specially": 2609,
      "saints": 2610,
      "sledge": 2611,
      "unable": 2612,
      "section": 2613,
      "changed": 2614,
      "dantes": 2615,
      "represent": 2616,
      "timid": 2617,
      "beautifully": 2618,
      "counted": 2619,
      "shirt": 2620,
      "serving": 2621,
      "finest": 2622,
      "minds": 2623,
      "henceforth": 2624,
      "ruled": 2625,
      "transferred": 2626,
      "more": 2627,
      "chance": 2628,
      "folks": 2629,
      "rare": 2630,
      "discovered": 2631,
      "jacob": 2632,
      "converse": 2633,
      "industrial": 2634,
      "apparatus": 2635,
      "gentle": 2636,
      "civilized": 2637,
      "hesitate": 2638,
      "gets": 2639,
      "warriors": 2640,
      "fastened": 2641,
      "comes": 2642,
      "squire": 2643,
      "governor": 2644,
      "kings": 2645,
      "remote": 2646,
      "seventeenth": 2647,
      "stores": 2648,
      "sympathy": 2649,
      "discovery": 2650,
      "students": 2651,
      "chief": 2652,
      "mental": 2653,
      "cyril": 2654,
      "recollection": 2655,
      "enclosed": 2656,
      "athenians": 2657,
      "better": 2658,
      "descent": 2659,
      "peril": 2660,
      "conquer": 2661,
      "opinions": 2662,
      "seize": 2663,
      "hiding": 2664,
      "skins": 2665,
      "were": 2666,
      "gave": 2667,
      "awaiting": 2668,
      "parker": 2669,
      "rascal": 2670,
      "followers": 2671,
      "sentence": 2672,
      "california": 2673,
      "ready": 2674,
      "settle": 2675,
      "jumped": 2676,
      "exchange": 2677,
      "relieved": 2678,
      "corridor": 2679,
      "across": 2680,
      "describe": 2681,
      "horse": 2682,
      "canoe": 2683,
      "verse": 2684,
      "credit": 2685,
      "sounding": 2686,
      "misfortunes": 2687,
      "speaker": 2688,
      "bob": 2689,
      "horn": 2690,
      "ralph": 2691,
      "w": 2692,
      "edges": 2693,
      "comparison": 2694,
      "evidence": 2695,
      "pleases": 2696,
      "landing": 2697,
      "sleeping": 2698,
      "founded": 2699,
      "nation": 2700,
      "heir": 2701,
      "dorothy": 2702,
      "bonnet": 2703,
      "for": 2704,
      "anger": 2705,
      "dine": 2706,
      "touches": 2707,
      "##8": 2708,
      "muttered": 2709,
      "cliff": 2710,
      "intimacy": 2711,
      "market": 2712,
      "deserved": 2713,
      "scarcely": 2714,
      "children": 2715,
      "change": 2716,
      "careful": 2717,
      "poet": 2718,
      "lamps": 2719,
      "rolled": 2720,
      "descend": 2721,
      "reflected": 2722,
      "skin": 2723,
      "incident": 2724,
      "fashion": 2725,
      "mules": 2726,
      "dollar": 2727,
      "slaves": 2728,
      "added": 2729,
      "thoroughly": 2730,
      "occasional": 2731,
      "simply": 2732,
      "scientific": 2733,
      "district": 2734,
      "stopped": 2735,
      "burning": 2736,
      "tones": 2737,
      "economy": 2738,
      "bishop": 2739,
      "peculiar": 2740,
      "mirth": 2741,
      "fools": 2742,
      "forests": 2743,
      "plains": 2744,
      "slaughter": 2745,
      "ward": 2746,
      "complain": 2747,
      "russian": 2748,
      "men": 2749,
      "poems": 2750,
      "accord": 2751,
      "grim": 2752,
      "attraction": 2753,
      "[UNK]": 2754,
      "track": 2755,
      "repent": 2756,
      "velvet": 2757,
      "garment": 2758,
      "at": 2759,
      "circumstances": 2760,
      "fled": 2761,
      "part": 2762,
      "possibility": 2763,
      "allow": 2764,
      "assistant": 2765,
      "lights": 2766,
      "nose": 2767,
      "dense": 2768,
      "baby": 2769,
      "disposed": 2770,
      "shop": 2771,
      "nerves": 2772,
      "significant": 2773,
      "person": 2774,
      "afternoon": 2775,
      "politely": 2776,
      "growth": 2777,
      "saying": 2778,
      "door": 2779,
      "divided": 2780,
      "protest": 2781,
      "immortal": 2782,
      "danger": 2783,
      "fearful": 2784,
      "upon": 2785,
      "use": 2786,
      "hesitation": 2787,
      "modest": 2788,
      "tidings": 2789,
      "weeks": 2790,
      "tear": 2791,
      "coarse": 2792,
      "crooked": 2793,
      "pursued": 2794,
      "easy": 2795,
      "forming": 2796,
      "esteemed": 2797,
      "obtained": 2798,
      "valuable": 2799,
      "tents": 2800,
      "movement": 2801,
      "hurled": 2802,
      "perceive": 2803,
      "eighteen": 2804,
      "extraordinary": 2805,
      "machine": 2806,
      "troubles": 2807,
      "desired": 2808,
      "lately": 2809,
      "sexual": 2810,
      "ours": 2811,
      "shops": 2812,
      "rushed": 2813,
      "compared": 2814,
      "shy": 2815,
      "size": 2816,
      "bridge": 2817,
      "boil": 2818,
      "guests": 2819,
      "sleeves": 2820,
      "dying": 2821,
      "message": 2822,
      "authority": 2823,
      "refuge": 2824,
      "future": 2825,
      "knowledge": 2826,
      "swift": 2827,
      "vague": 2828,
      "called": 2829,
      "equal": 2830,
      "blaze": 2831,
      "people's": 2832,
      "breed": 2833,
      "says": 2834,
      "absolutely": 2835,
      "arrival": 2836,
      "pony": 2837,
      "adam": 2838,
      "rooms": 2839,
      "spanish": 2840,
      "scent": 2841,
      "disturb": 2842,
      "matter": 2843,
      "white": 2844,
      "preferred": 2845,
      "fellows": 2846,
      "kitty": 2847,
      "cry": 2848,
      "resolute": 2849,
      "wave": 2850,
      "folded": 2851,
      "bright": 2852,
      "dinner": 2853,
      "jolly": 2854,
      "illustration": 2855,
      "monsieur": 2856,
      "oliver": 2857,
      "regular": 2858,
      "duration": 2859,
      "questioning": 2860,
      "a": 2861,
      "restraint": 2862,
      "hears": 2863,
      "descended": 2864,
      "gentlemen": 2865,
      "candles": 2866,
      "news": 2867,
      "voyage": 2868,
      "pound": 2869,
      "begging": 2870,
      "going": 2871,
      "blew": 2872,
      "crowded": 2873,
      "extremely": 2874,
      "angels": 2875,
      "star": 2876,
      "stretch": 2877,
      "pinocchio": 2878,
      "ought": 2879,
      "distinction": 2880,
      "reflections": 2881,
      "repeating": 2882,
      "fellow": 2883,
      "needed": 2884,
      "charm": 2885,
      "behalf": 2886,
      "allan": 2887,
      "panting": 2888,
      "peter": 2889,
      "places": 2890,
      "encountered": 2891,
      "passages": 2892,
      "desert": 2893,
      "intelligible": 2894,
      "summoned": 2895,
      "smiling": 2896,
      "discretion": 2897,
      "interpretation": 2898,
      "conceived": 2899,
      "endless": 2900,
      "cheeks": 2901,
      "secure": 2902,
      "drawn": 2903,
      "frederick": 2904,
      "democratic": 2905,
      "dutch": 2906,
      "wont": 2907,
      "philosophers": 2908,
      "row": 2909,
      "assume": 2910,
      "walks": 2911,
      "rebellion": 2912,
      "torrent": 2913,
      "comfortably": 2914,
      "occasionally": 2915,
      "port": 2916,
      "toes": 2917,
      "mighty": 2918,
      "admit": 2919,
      "law": 2920,
      "stupid": 2921,
      "startling": 2922,
      "carriage": 2923,
      "inch": 2924,
      "beaten": 2925,
      "external": 2926,
      "seriously": 2927,
      "moderate": 2928,
      "ma'am": 2929,
      "harbor": 2930,
      "originally": 2931,
      "eagerly": 2932,
      "offence": 2933,
      "drawing": 2934,
      "bare": 2935,
      "clergyman": 2936,
      "legal": 2937,
      "surrender": 2938,
      "philip": 2939,
      "virtue": 2940,
      "ate": 2941,
      "owner": 2942,
      "dismissed": 2943,
      "interior": 2944,
      "paid": 2945,
      "workmen": 2946,
      "beloved": 2947,
      "regarded": 2948,
      "summit": 2949,
      "merit": 2950,
      "line": 2951,
      "filling": 2952,
      "appreciate": 2953,
      "restored": 2954,
      "saddle": 2955,
      "revolver": 2956,
      "shortly": 2957,
      "afterward": 2958,
      "mitya": 2959,
      "satisfied": 2960,
      "tall": 2961,
      "appeared": 2962,
      "experienced": 2963,
      "fiery": 2964,
      "glass": 2965,
      "warn": 2966,
      "brushed": 2967,
      "parallel": 2968,
      "quitted": 2969,
      "citizens": 2970,
      "he's": 2971,
      "scarce": 2972,
      "couple": 2973,
      "tent": 2974,
      "praise": 2975,
      "substances": 2976,
      "bee": 2977,
      "sale": 2978,
      "accused": 2979,
      "proudly": 2980,
      "astonishment": 2981,
      "show": 2982,
      "steep": 2983,
      "seldom": 2984,
      "skull": 2985,
      "princess": 2986,
      "about": 2987,
      "usual": 2988,
      "commit": 2989,
      "jo": 2990,
      "treachery": 2991,
      "apartment": 2992,
      "reception": 2993,
      "honourable": 2994,
      "estralla": 2995,
      "childish": 2996,
      "professor": 2997,
      "tools": 2998,
      "quantities": 2999,
      "rolling": 3000,
      "stranger": 3001,
      "farm": 3002,
      "club": 3003,
      "mail": 3004,
      "dreaming": 3005,
      "healthy": 3006,
      "mike": 3007,
      "bend": 3008,
      "shakespeare": 3009,
      "underneath": 3010,
      "americans": 3011,
      "miles": 3012,
      "regards": 3013,
      "trick": 3014,
      "shriek": 3015,
      "highly": 3016,
      "inward": 3017,
      "treasure": 3018,
      "solution": 3019,
      "community": 3020,
      "citizen": 3021,
      "prepared": 3022,
      "think": 3023,
      "purchased": 3024,
      "travelled": 3025,
      "martin": 3026,
      "theory": 3027,
      "chill": 3028,
      "peak": 3029,
      "winding": 3030,
      "advice": 3031,
      "scream": 3032,
      "during": 3033,
      "plain": 3034,
      "east": 3035,
      "huge": 3036,
      "profound": 3037,
      "shadow": 3038,
      "sire": 3039,
      "don't": 3040,
      "destiny": 3041,
      "exercise": 3042,
      "nursery": 3043,
      "lazy": 3044,
      "died": 3045,
      "invariably": 3046,
      "compassion": 3047,
      "philosophy": 3048,
      "judged": 3049,
      "##0": 3050,
      "tastes": 3051,
      "go": 3052,
      "individuals": 3053,
      "6": 3054,
      "dressed": 3055,
      "rich": 3056,
      "##u": 3057,
      "order": 3058,
      "steady": 3059,
      "laugh": 3060,
      "visitor": 3061,
      "lines": 3062,
      "fit": 3063,
      "puzzled": 3064,
      "corner": 3065,
      "distressed": 3066,
      "magic": 3067,
      "guess": 3068,
      "commercial": 3069,
      "reaches": 3070,
      "companion": 3071,
      "pointed": 3072,
      "females": 3073,
      "so": 3074,
      "moving": 3075,
      "narrative": 3076,
      "have": 3077,
      "cent": 3078,
      "reduced": 3079,
      "blessing": 3080,
      "maintain": 3081,
      "ashes": 3082,
      "sovereign": 3083,
      "maker": 3084,
      "shaft": 3085,
      "centre": 3086,
      "marian": 3087,
      "casting": 3088,
      "alone": 3089,
      "degrees": 3090,
      "heavily": 3091,
      "sail": 3092,
      "edward": 3093,
      "truth": 3094,
      "staggered": 3095,
      "giant": 3096,
      "wonder": 3097,
      "isabel": 3098,
      "guy": 3099,
      "assembly": 3100,
      "tops": 3101,
      "sharply": 3102,
      "uncle": 3103,
      "platform": 3104,
      "ridden": 3105,
      "recorded": 3106,
      "peaceful": 3107,
      "consists": 3108,
      "mist": 3109,
      "bitterness": 3110,
      "promising": 3111,
      "limit": 3112,
      "hue": 3113,
      "curse": 3114,
      "eyes": 3115,
      "jane": 3116,
      "objected": 3117,
      "doctrine": 3118,
      "like": 3119,
      "accompany": 3120,
      "satisfaction": 3121,
      "worst": 3122,
      "resolved": 3123,
      "escaping": 3124,
      "guided": 3125,
      "traces": 3126,
      "sympathetic": 3127,
      "necessary": 3128,
      "job": 3129,
      "marvel": 3130,
      "heel": 3131,
      "marquis": 3132,
      "bury": 3133,
      "generally": 3134,
      "foreign": 3135,
      "notion": 3136,
      "towns": 3137,
      "criminal": 3138,
      "rejoined": 3139,
      "beard": 3140,
      "trail": 3141,
      "visit": 3142,
      "sister": 3143,
      "bent": 3144,
      "emerged": 3145,
      "waters": 3146,
      "innocence": 3147,
      "undoubtedly": 3148,
      "luxury": 3149,
      "percy": 3150,
      "obtain": 3151,
      "entire": 3152,
      "center": 3153,
      "wooden": 3154,
      "rags": 3155,
      "oldest": 3156,
      "beings": 3157,
      "perception": 3158,
      "marriage": 3159,
      "meals": 3160,
      "self": 3161,
      "odd": 3162,
      "regard": 3163,
      "imitation": 3164,
      "incredible": 3165,
      "bestow": 3166,
      "dear": 3167,
      "constant": 3168,
      "innumerable": 3169,
      "intend": 3170,
      "haste": 3171,
      "inspiration": 3172,
      "signal": 3173,
      "rational": 3174,
      "nobility": 3175,
      "creatures": 3176,
      "pushed": 3177,
      "society": 3178,
      "remembering": 3179,
      "unusually": 3180,
      "assertion": 3181,
      "certainty": 3182,
      "authorities": 3183,
      "spread": 3184,
      "bloom": 3185,
      "mary's": 3186,
      "pistol": 3187,
      "amused": 3188,
      "crystal": 3189,
      "let's": 3190,
      "ridge": 3191,
      "thinks": 3192,
      "5": 3193,
      "doctor": 3194,
      "string": 3195,
      "comb": 3196,
      "finding": 3197,
      "comment": 3198,
      "composition": 3199,
      "measures": 3200,
      "lightning": 3201,
      "clothing": 3202,
      "dragged": 3203,
      "fourth": 3204,
      "wretch": 3205,
      "pleasantly": 3206,
      "gifts": 3207,
      "deeds": 3208,
      "keeping": 3209,
      "fawn": 3210,
      "killed": 3211,
      "secret": 3212,
      "indians": 3213,
      "circle": 3214,
      "last": 3215,
      "jason": 3216,
      "pack": 3217,
      "threshold": 3218,
      "variety": 3219,
      "buck": 3220,
      "picturesque": 3221,
      "races": 3222,
      "hurriedly": 3223,
      "century": 3224,
      "whereby": 3225,
      "mob": 3226,
      "rises": 3227,
      "curiosity": 3228,
      "dark": 3229,
      "fanny": 3230,
      "unusual": 3231,
      "patient": 3232,
      "monstrous": 3233,
      "ring": 3234,
      "raggedy": 3235,
      "glimpse": 3236,
      "american": 3237,
      "leaders": 3238,
      "sorrows": 3239,
      "canvas": 3240,
      "ruth": 3241,
      "cast": 3242,
      "sancho": 3243,
      "rejected": 3244,
      "sadly": 3245,
      "held": 3246,
      "commander": 3247,
      "h": 3248,
      "finger": 3249,
      "project": 3250,
      "recognition": 3251,
      "indulgence": 3252,
      "rather": 3253,
      "internal": 3254,
      "youth": 3255,
      "rocky": 3256,
      "helping": 3257,
      "appear": 3258,
      "ben": 3259,
      "terror": 3260,
      "table": 3261,
      "note": 3262,
      "arm": 3263,
      "usually": 3264,
      "failed": 3265,
      "manuscript": 3266,
      "opposition": 3267,
      "repair": 3268,
      "effect": 3269,
      "corresponding": 3270,
      "hundred": 3271,
      "mine": 3272,
      "lose": 3273,
      "anybody": 3274,
      "cut": 3275,
      "anxious": 3276,
      "happen": 3277,
      "classes": 3278,
      "gale": 3279,
      "prison": 3280,
      "courage": 3281,
      "realize": 3282,
      "their": 3283,
      "o'clock": 3284,
      "produce": 3285,
      "same": 3286,
      "meanwhile": 3287,
      "den": 3288,
      "monkeys": 3289,
      "river": 3290,
      "hurrying": 3291,
      "dashed": 3292,
      "september": 3293,
      "dream": 3294,
      "black": 3295,
      "[": 3296,
      "example": 3297,
      "chiefs": 3298,
      "silk": 3299,
      "start": 3300,
      "indeed": 3301,
      "doomed": 3302,
      "politeness": 3303,
      "sentences": 3304,
      "triumphant": 3305,
      "sometimes": 3306,
      "ruins": 3307,
      "graham": 3308,
      "encouraged": 3309,
      "tiny": 3310,
      "acquired": 3311,
      "flung": 3312,
      "painful": 3313,
      "color": 3314,
      "derived": 3315,
      "contract": 3316,
      "floating": 3317,
      "dainty": 3318,
      "hideous": 3319,
      "pity": 3320,
      "readiness": 3321,
      "earned": 3322,
      "exercised": 3323,
      "academy": 3324,
      "april": 3325,
      "north": 3326,
      "west": 3327,
      "cock": 3328,
      "king's": 3329,
      "described": 3330,
      "european": 3331,
      "examining": 3332,
      "bench": 3333,
      "leading": 3334,
      "chase": 3335,
      "led": 3336,
      "points": 3337,
      "explain": 3338,
      "flew": 3339,
      "sunk": 3340,
      "accordance": 3341,
      "anon": 3342,
      "object": 3343,
      "em": 3344,
      "happy": 3345,
      "feeble": 3346,
      "dale": 3347,
      "sorrowful": 3348,
      "k": 3349,
      "developed": 3350,
      "request": 3351,
      "tiger": 3352,
      "joy": 3353,
      "caused": 3354,
      "poverty": 3355,
      "son": 3356,
      "fortnight": 3357,
      "hastened": 3358,
      "songs": 3359,
      "roofs": 3360,
      "marvellous": 3361,
      "mixture": 3362,
      "proves": 3363,
      "discussed": 3364,
      "readily": 3365,
      "faced": 3366,
      "whereupon": 3367,
      "guide": 3368,
      "ox": 3369,
      "tune": 3370,
      "enthusiastic": 3371,
      "explaining": 3372,
      "pearls": 3373,
      "institutions": 3374,
      "childhood": 3375,
      "moments": 3376,
      "papers": 3377,
      "trace": 3378,
      "lantern": 3379,
      "hear": 3380,
      "storm": 3381,
      "assembled": 3382,
      "proved": 3383,
      "tremble": 3384,
      "detected": 3385,
      "attacks": 3386,
      "prime": 3387,
      "facing": 3388,
      "creeping": 3389,
      "peoples": 3390,
      "##h": 3391,
      "folly": 3392,
      "kettle": 3393,
      "dull": 3394,
      "peep": 3395,
      "scarlet": 3396,
      "woe": 3397,
      "useless": 3398,
      "causes": 3399,
      "awe": 3400,
      "against": 3401,
      "rifle": 3402,
      "tonight": 3403,
      "preserve": 3404,
      "railroad": 3405,
      "flat": 3406,
      "on": 3407,
      "faint": 3408,
      "inquire": 3409,
      "area": 3410,
      "visions": 3411,
      "married": 3412,
      "model": 3413,
      "ali": 3414,
      "breathing": 3415,
      "heavenly": 3416,
      "solemn": 3417,
      "long": 3418,
      "benefit": 3419,
      "victor": 3420,
      "king": 3421,
      "thine": 3422,
      "introduction": 3423,
      "weep": 3424,
      "confined": 3425,
      "globe": 3426,
      "crown": 3427,
      "add": 3428,
      "stick": 3429,
      "formation": 3430,
      "genius": 3431,
      "reputation": 3432,
      "changing": 3433,
      "endeavour": 3434,
      "occurrence": 3435,
      "jean": 3436,
      "uttering": 3437,
      "hands": 3438,
      "tribes": 3439,
      "##w": 3440,
      "fault": 3441,
      "difficulties": 3442,
      "generals": 3443,
      "feather": 3444,
      "strangely": 3445,
      "before": 3446,
      "slim": 3447,
      "armies": 3448,
      "deal": 3449,
      "individual": 3450,
      "bring": 3451,
      "attitude": 3452,
      "isabella": 3453,
      "staircase": 3454,
      "instant": 3455,
      "fancied": 3456,
      "once": 3457,
      "bottom": 3458,
      "child's": 3459,
      "original": 3460,
      "cousins": 3461,
      "bernard": 3462,
      "neglected": 3463,
      "lip": 3464,
      "picture": 3465,
      "hearty": 3466,
      "transparent": 3467,
      "protected": 3468,
      "abuse": 3469,
      "forgot": 3470,
      "fire": 3471,
      "greeks": 3472,
      "gathering": 3473,
      "apparently": 3474,
      "page": 3475,
      "shuddered": 3476,
      "entrance": 3477,
      "permit": 3478,
      "rank": 3479,
      "reference": 3480,
      "##a": 3481,
      "despair": 3482,
      "utterly": 3483,
      "charlotte": 3484,
      "receive": 3485,
      "sunset": 3486,
      "ideas": 3487,
      "essential": 3488,
      "clever": 3489,
      "street": 3490,
      "underground": 3491,
      "colonel": 3492,
      "boy's": 3493,
      "reasoning": 3494,
      "machines": 3495,
      "apparent": 3496,
      "wars": 3497,
      "conversation": 3498,
      "protection": 3499,
      "leader": 3500,
      "keenly": 3501,
      "distinguish": 3502,
      "blow": 3503,
      "sobbed": 3504,
      "cage": 3505,
      "natives": 3506,
      "humour": 3507,
      "may": 3508,
      "knot": 3509,
      "progress": 3510,
      "hide": 3511,
      "dirt": 3512,
      "museum": 3513,
      "according": 3514,
      "papa": 3515,
      "gloom": 3516,
      "swing": 3517,
      "winds": 3518,
      "will": 3519,
      "win": 3520,
      "stern": 3521,
      "hardly": 3522,
      "methods": 3523,
      "development": 3524,
      "yea": 3525,
      "female": 3526,
      "departure": 3527,
      "potatoes": 3528,
      "bark": 3529,
      "pleased": 3530,
      "floor": 3531,
      "wear": 3532,
      "hopes": 3533,
      "slipped": 3534,
      "heads": 3535,
      "donkey": 3536,
      "how": 3537,
      "robbed": 3538,
      "moved": 3539,
      "assist": 3540,
      "cannon": 3541,
      "examination": 3542,
      "sense": 3543,
      "ellen": 3544,
      "pavement": 3545,
      "dresses": 3546,
      "current": 3547,
      "deaf": 3548,
      "marched": 3549,
      "shower": 3550,
      "error": 3551,
      "x": 3552,
      "worth": 3553,
      "shrank": 3554,
      "worm": 3555,
      "prisoners": 3556,
      "dreadful": 3557,
      "flowing": 3558,
      "examples": 3559,
      "inferior": 3560,
      "find": 3561,
      "henrietta": 3562,
      "whiskers": 3563,
      "since": 3564,
      "annie": 3565,
      "falsehood": 3566,
      "##o": 3567,
      "eye": 3568,
      "witch": 3569,
      "gain": 3570,
      "morality": 3571,
      "threatened": 3572,
      "kate": 3573,
      "ahead": 3574,
      "+": 3575,
      "unhappy": 3576,
      "construction": 3577,
      "jews": 3578,
      "was": 3579,
      "whisper": 3580,
      "grounds": 3581,
      "marks": 3582,
      "murdered": 3583,
      "with": 3584,
      "daughters": 3585,
      "abandoned": 3586,
      "murmur": 3587,
      "pounds": 3588,
      "drift": 3589,
      "alexander": 3590,
      "islands": 3591,
      "lungs": 3592,
      "conveyed": 3593,
      "quoth": 3594,
      "countries": 3595,
      "boy": 3596,
      "introduced": 3597,
      "rejoicing": 3598,
      "honestly": 3599,
      "tempered": 3600,
      "strip": 3601,
      "echo": 3602,
      "place": 3603,
      "$": 3604,
      "sigh": 3605,
      "woods": 3606,
      "dot": 3607,
      "yards": 3608,
      "opinion": 3609,
      "inevitable": 3610,
      "written": 3611,
      "seizing": 3612,
      "government": 3613,
      "into": 3614,
      "cheerful": 3615,
      "accepted": 3616,
      "remorse": 3617,
      "else": 3618,
      "consequently": 3619,
      "dwarf": 3620,
      "felicity": 3621,
      "accomplish": 3622,
      "embroidered": 3623,
      "tenth": 3624,
      "interposed": 3625,
      "question": 3626,
      "soul": 3627,
      "lads": 3628,
      "sweeping": 3629,
      "amazed": 3630,
      "badly": 3631,
      "emperor": 3632,
      "jude": 3633,
      "wondering": 3634,
      "climate": 3635,
      "fowl": 3636,
      "tumbled": 3637,
      "conceal": 3638,
      "mentioned": 3639,
      "opening": 3640,
      "practised": 3641,
      "disorder": 3642,
      "legs": 3643,
      "hung": 3644,
      "approve": 3645,
      "reminded": 3646,
      "joseph": 3647,
      "encourage": 3648,
      "washing": 3649,
      "seeing": 3650,
      "duties": 3651,
      "you've": 3652,
      "tales": 3653,
      "captured": 3654,
      "civilization": 3655,
      "poetry": 3656,
      "learning": 3657,
      "eustace": 3658,
      "saluted": 3659,
      "partly": 3660,
      "falls": 3661,
      "easier": 3662,
      "incense": 3663,
      "yet": 3664,
      "extreme": 3665,
      "buildings": 3666,
      "dance": 3667,
      "valleys": 3668,
      "tongues": 3669,
      "alas": 3670,
      "clothed": 3671,
      "irish": 3672,
      "prayers": 3673,
      "keith": 3674,
      "faintly": 3675,
      "measured": 3676,
      "result": 3677,
      "games": 3678,
      "train": 3679,
      "cabinet": 3680,
      "without": 3681,
      "holding": 3682,
      "urged": 3683,
      "purple": 3684,
      "stepping": 3685,
      "bounded": 3686,
      "weren't": 3687,
      "using": 3688,
      "eight": 3689,
      "death": 3690,
      "bodily": 3691,
      "has": 3692,
      "3": 3693,
      "proceed": 3694,
      "cavalry": 3695,
      "lemon": 3696,
      "snow": 3697,
      "infinitely": 3698,
      "ask": 3699,
      "lived": 3700,
      "radiant": 3701,
      "betray": 3702,
      "crossing": 3703,
      "fuel": 3704,
      "easily": 3705,
      "complexion": 3706,
      "fix": 3707,
      "brass": 3708,
      "he'd": 3709,
      "experiences": 3710,
      "here": 3711,
      "seasons": 3712,
      "addition": 3713,
      "runs": 3714,
      "supreme": 3715,
      "pretended": 3716,
      "confusion": 3717,
      "hurt": 3718,
      "instances": 3719,
      "lonely": 3720,
      "assumed": 3721,
      "compelled": 3722,
      "cat": 3723,
      "confirmed": 3724,
      "tendency": 3725,
      "carries": 3726,
      "answers": 3727,
      "newspaper": 3728,
      "him": 3729,
      "obtaining": 3730,
      "conducted": 3731,
      "afterwards": 3732,
      "help": 3733,
      "faculty": 3734,
      "inhabitants": 3735,
      "power": 3736,
      "chopped": 3737,
      "embarrassed": 3738,
      "admired": 3739,
      "frenchman": 3740,
      "wi": 3741,
      "length": 3742,
      "residence": 3743,
      "claims": 3744,
      "straight": 3745,
      "surroundings": 3746,
      "aunt": 3747,
      "dim": 3748,
      "barn": 3749,
      "irresistible": 3750,
      "deemed": 3751,
      "preserved": 3752,
      "atlantic": 3753,
      "tails": 3754,
      "range": 3755,
      "told": 3756,
      "creep": 3757,
      "bay": 3758,
      "compact": 3759,
      "labor": 3760,
      "handle": 3761,
      "generosity": 3762,
      "delivered": 3763,
      "irregular": 3764,
      "hale": 3765,
      "occasion": 3766,
      "provisions": 3767,
      "harbour": 3768,
      "listening": 3769,
      "writer": 3770,
      "such": 3771,
      "foul": 3772,
      "mud": 3773,
      "burned": 3774,
      "playing": 3775,
      "daughter": 3776,
      "develop": 3777,
      "involved": 3778,
      "goodness": 3779,
      "travellers": 3780,
      "provision": 3781,
      "leaving": 3782,
      "cross": 3783,
      "vulgar": 3784,
      "already": 3785,
      "belief": 3786,
      "ones": 3787,
      "block": 3788,
      "positive": 3789,
      "finer": 3790,
      "judge": 3791,
      "organs": 3792,
      "paul": 3793,
      "enjoyed": 3794,
      "library": 3795,
      "race": 3796,
      "stirred": 3797,
      "spectators": 3798,
      "valentine": 3799,
      "water": 3800,
      "stream": 3801,
      "architecture": 3802,
      "grave": 3803,
      "wonderfully": 3804,
      "maybe": 3805,
      "worship": 3806,
      "bell": 3807,
      "ink": 3808,
      "needn't": 3809,
      "knocking": 3810,
      ".": 3811,
      "receiving": 3812,
      "cents": 3813,
      "dangerous": 3814,
      "hounds": 3815,
      "animated": 3816,
      "gilbert": 3817,
      "flesh": 3818,
      "bowl": 3819,
      "analysis": 3820,
      "vanity": 3821,
      "briskly": 3822,
      "cellar": 3823,
      "finally": 3824,
      "u": 3825,
      "important": 3826,
      "<": 3827,
      "cheerfully": 3828,
      "axe": 3829,
      "destroyed": 3830,
      "popular": 3831,
      "under": 3832,
      "##3": 3833,
      "fitted": 3834,
      "teaching": 3835,
      "bread": 3836,
      "wasted": 3837,
      "studied": 3838,
      "checked": 3839,
      "witnessed": 3840,
      "sam": 3841,
      "c": 3842,
      "anxiety": 3843,
      "substance": 3844,
      "adopted": 3845,
      "cows": 3846,
      "roar": 3847,
      "insist": 3848,
      "hard": 3849,
      "tree": 3850,
      "us": 3851,
      "cursed": 3852,
      "madame": 3853,
      "exhibited": 3854,
      "friendly": 3855,
      "hours": 3856,
      "frame": 3857,
      "give": 3858,
      "partner": 3859,
      "1": 3860,
      "multitude": 3861,
      "nineteen": 3862,
      "witnesses": 3863,
      "smaller": 3864,
      "wise": 3865,
      "earn": 3866,
      "trim": 3867,
      "shoot": 3868,
      "brows": 3869,
      "envelope": 3870,
      "calmly": 3871,
      "holes": 3872,
      "brother": 3873,
      "doubtless": 3874,
      "foundation": 3875,
      "goin": 3876,
      "strange": 3877,
      "favorable": 3878,
      "school": 3879,
      "extended": 3880,
      "gravely": 3881,
      "cups": 3882,
      "aware": 3883,
      "group": 3884,
      "other": 3885,
      "arrow": 3886,
      "repeat": 3887,
      "patent": 3888,
      "reading": 3889,
      "we're": 3890,
      "living": 3891,
      "?": 3892,
      "putting": 3893,
      "taught": 3894,
      "gazing": 3895,
      "tight": 3896,
      "mostly": 3897,
      "few": 3898,
      "##z": 3899,
      "numerous": 3900,
      "formed": 3901,
      "awkward": 3902,
      "inspired": 3903,
      "difference": 3904,
      "lips": 3905,
      "entering": 3906,
      "score": 3907,
      "effort": 3908,
      "treated": 3909,
      "pitiful": 3910,
      "michael": 3911,
      "chinese": 3912,
      "crowns": 3913,
      "story": 3914,
      "surprised": 3915,
      "heed": 3916,
      "readers": 3917,
      "mabel": 3918,
      "guessed": 3919,
      "field": 3920,
      "limbs": 3921,
      "graceful": 3922,
      "disease": 3923,
      "personage": 3924,
      "net": 3925,
      "aged": 3926,
      "shouted": 3927,
      "glasses": 3928,
      "tightly": 3929,
      "ancient": 3930,
      "shattered": 3931,
      "striking": 3932,
      "nautilus": 3933,
      "animals": 3934,
      "rain": 3935,
      "deepest": 3936,
      "advise": 3937,
      "ordered": 3938,
      "am": 3939,
      "margaret": 3940,
      "worldly": 3941,
      "establish": 3942,
      "singing": 3943,
      "discuss": 3944,
      "neighbours": 3945,
      "sank": 3946,
      "boats": 3947,
      "science": 3948,
      "brought": 3949,
      "struck": 3950,
      "gates": 3951,
      "injury": 3952,
      "dollars": 3953,
      "generations": 3954,
      "mind": 3955,
      "similar": 3956,
      "brow": 3957,
      "converted": 3958,
      "france": 3959,
      "arrange": 3960,
      "wound": 3961,
      "governments": 3962,
      "bolt": 3963,
      "per": 3964,
      ")": 3965,
      "hasten": 3966,
      "writers": 3967,
      "regiment": 3968,
      "mute": 3969,
      "haughty": 3970,
      "wendy": 3971,
      "waiter": 3972,
      "face": 3973,
      "injured": 3974,
      "nails": 3975,
      "shaken": 3976,
      "comrade": 3977,
      "rapidity": 3978,
      "printed": 3979,
      "landscape": 3980,
      "stairs": 3981,
      "shape": 3982,
      "sheriff": 3983,
      "triumph": 3984,
      "twas": 3985,
      "attained": 3986,
      "every": 3987,
      "temple": 3988,
      "accident": 3989,
      "unexpected": 3990,
      "representative": 3991,
      "troops": 3992,
      "contained": 3993,
      "reflect": 3994,
      "anyhow": 3995,
      "britain": 3996,
      "counter": 3997,
      "julius": 3998,
      "chapel": 3999,
      "displayed": 4000,
      "splendid": 4001,
      "weary": 4002,
      "swore": 4003,
      "chances": 4004,
      "sure": 4005,
      "improve": 4006,
      "second": 4007,
      "motive": 4008,
      "phrase": 4009,
      "vengeance": 4010,
      "morals": 4011,
      "fashionable": 4012,
      "cape": 4013,
      "style": 4014,
      "bottles": 4015,
      "grows": 4016,
      "entertainment": 4017,
      "eric": 4018,
      "sending": 4019,
      "honey": 4020,
      "suspended": 4021,
      "roughly": 4022,
      "pushing": 4023,
      "tuesday": 4024,
      "stroke": 4025,
      "venture": 4026,
      "practice": 4027,
      "famous": 4028,
      "walls": 4029,
      "flight": 4030,
      "having": 4031,
      "fry": 4032,
      "passion": 4033,
      "fireplace": 4034,
      "damned": 4035,
      "%": 4036,
      "known": 4037,
      "flow": 4038,
      "nest": 4039,
      "frank": 4040,
      "siege": 4041,
      "thereupon": 4042,
      "beheld": 4043,
      "sailors": 4044,
      "hasn't": 4045,
      "views": 4046,
      "political": 4047,
      "indicated": 4048,
      "proposal": 4049,
      "bid": 4050,
      "enormous": 4051,
      "foliage": 4052,
      "period": 4053,
      "investigation": 4054,
      "bonds": 4055,
      "offer": 4056,
      "heard": 4057,
      "further": 4058,
      "nobles": 4059,
      "studio": 4060,
      "jury": 4061,
      "determine": 4062,
      "communicated": 4063,
      "ann": 4064,
      "therefore": 4065,
      "see": 4066,
      "along": 4067,
      "defiance": 4068,
      "flora": 4069,
      "deer": 4070,
      "blazing": 4071,
      "pipe": 4072,
      "soon": 4073,
      "naturally": 4074,
      "professional": 4075,
      "instinctively": 4076,
      "goods": 4077,
      "cigar": 4078,
      "sex": 4079,
      "snatched": 4080,
      "perplexity": 4081,
      "nations": 4082,
      "disturbed": 4083,
      "annoyed": 4084,
      "sparkling": 4085,
      "warned": 4086,
      "acquaintance": 4087,
      "rigid": 4088,
      "collect": 4089,
      "new": 4090,
      "ship's": 4091,
      "obliged": 4092,
      "submitted": 4093,
      "image": 4094,
      "profession": 4095,
      "stars": 4096,
      "appointment": 4097,
      "to": 4098,
      "effective": 4099,
      "name": 4100,
      "reached": 4101,
      "sisters": 4102,
      "groups": 4103,
      "impossible": 4104,
      "listen": 4105,
      "cap": 4106,
      "laughed": 4107,
      "visiting": 4108,
      "lifted": 4109,
      "appearing": 4110,
      "marry": 4111,
      "betty": 4112,
      "refined": 4113,
      "grimly": 4114,
      "members": 4115,
      "neighborhood": 4116,
      "significance": 4117,
      "sugar": 4118,
      "sails": 4119,
      "form": 4120,
      "copy": 4121,
      "resembled": 4122,
      "prudence": 4123,
      "restore": 4124,
      "january": 4125,
      "rustling": 4126,
      "want": 4127,
      "fairy": 4128,
      "succeed": 4129,
      "accordingly": 4130,
      "loudly": 4131,
      "careless": 4132,
      "expecting": 4133,
      "praised": 4134,
      "discourse": 4135,
      "numbers": 4136,
      "rule": 4137,
      "uneasy": 4138,
      "speaking": 4139,
      "eighteenth": 4140,
      "pale": 4141,
      "land": 4142,
      "patch": 4143,
      "##2": 4144,
      "if": 4145,
      "takes": 4146,
      "aim": 4147,
      "adding": 4148,
      "superintendent": 4149,
      "reigned": 4150,
      "bite": 4151,
      "waste": 4152,
      "vexed": 4153,
      "violet": 4154,
      "economic": 4155,
      "placed": 4156,
      "pacific": 4157,
      "fruits": 4158,
      "abraham": 4159,
      "saturday": 4160,
      "should": 4161,
      "soldier": 4162,
      "extremity": 4163,
      "joined": 4164,
      "lightly": 4165,
      "thou": 4166,
      "forced": 4167,
      "tells": 4168,
      "disgust": 4169,
      "middle": 4170,
      ";": 4171,
      "slay": 4172,
      "exists": 4173,
      "sing": 4174,
      "big": 4175,
      "bidding": 4176,
      "reasonable": 4177,
      "medical": 4178,
      "mouths": 4179,
      "behind": 4180,
      "psmith": 4181,
      "elected": 4182,
      "among": 4183,
      "evil": 4184,
      "haunted": 4185,
      "softened": 4186,
      "contact": 4187,
      "remark": 4188,
      "dumb": 4189,
      "bowing": 4190,
      "spite": 4191,
      "chiefly": 4192,
      "live": 4193,
      "sword": 4194,
      "opera": 4195,
      "glorious": 4196,
      "q": 4197,
      "manager": 4198,
      "dome": 4199,
      "screen": 4200,
      "pig": 4201,
      "violently": 4202,
      "m": 4203,
      "directed": 4204,
      "##v": 4205,
      "worlds": 4206,
      "d'artagnan": 4207,
      "patsy": 4208,
      "present": 4209,
      "hastily": 4210,
      "ruined": 4211,
      "delighted": 4212,
      "illustrious": 4213,
      "company": 4214,
      "appearance": 4215,
      "perfect": 4216,
      "scale": 4217,
      "england": 4218,
      "powerful": 4219,
      "own": 4220,
      "advantages": 4221,
      "strong": 4222,
      "british": 4223,
      "mayor": 4224,
      "eagerness": 4225,
      "flashing": 4226,
      "lowest": 4227,
      "deceive": 4228,
      "lincoln": 4229,
      "my": 4230,
      "charity": 4231,
      "fulfilled": 4232,
      "could": 4233,
      "thumb": 4234,
      "passengers": 4235,
      "convent": 4236,
      "patience": 4237,
      "instinct": 4238,
      "fare": 4239,
      "wrist": 4240,
      "rapidly": 4241,
      "ignorant": 4242,
      "emphasis": 4243,
      "display": 4244,
      "terrible": 4245,
      "lay": 4246,
      "mix": 4247,
      "replied": 4248,
      "lent": 4249,
      "procured": 4250,
      "shining": 4251,
      "others": 4252,
      "allowing": 4253,
      "knew": 4254,
      "girls": 4255,
      "stained": 4256,
      "discussion": 4257,
      "embrace": 4258,
      "engaged": 4259,
      "sheltered": 4260,
      "dried": 4261,
      "lest": 4262,
      "debts": 4263,
      "rules": 4264,
      "apprehension": 4265,
      "prudent": 4266,
      "mercy": 4267,
      "clothes": 4268,
      "clerk": 4269,
      "off": 4270,
      "working": 4271,
      "personally": 4272,
      "bought": 4273,
      "young": 4274,
      "improvement": 4275,
      "nicely": 4276,
      "sickness": 4277,
      "cloak": 4278,
      "shot": 4279,
      "russia": 4280,
      "fully": 4281,
      "built": 4282,
      "slopes": 4283,
      "tired": 4284,
      "clear": 4285,
      "arriving": 4286,
      "robes": 4287,
      "maria": 4288,
      "bestowed": 4289,
      "swallowed": 4290,
      "gentleman": 4291,
      "bearing": 4292,
      "wash": 4293,
      "sum": 4294,
      "separation": 4295,
      "amusing": 4296,
      "bullet": 4297,
      "kingdom": 4298,
      "seeds": 4299,
      "fancies": 4300,
      "intolerable": 4301,
      "thornton": 4302,
      "preparation": 4303,
      "turkey": 4304,
      "scenes": 4305,
      "peculiarly": 4306,
      "thieves": 4307,
      "marcella": 4308,
      "swords": 4309,
      "retreated": 4310,
      "ringing": 4311,
      "concerned": 4312,
      "splendor": 4313,
      "testimony": 4314,
      "quiet": 4315,
      "end": 4316,
      "melted": 4317,
      "younger": 4318,
      "prevent": 4319,
      "belonging": 4320,
      "leap": 4321,
      "severe": 4322,
      "reaction": 4323,
      "preceded": 4324,
      "thousands": 4325,
      "october": 4326,
      "obvious": 4327,
      "raoul": 4328,
      "ape": 4329,
      "resumed": 4330,
      "diamond": 4331,
      "engage": 4332,
      "themselves": 4333,
      "world": 4334,
      "refused": 4335,
      "wished": 4336,
      "physician": 4337,
      "tin": 4338,
      "tumult": 4339,
      "main": 4340,
      "gasped": 4341,
      "draught": 4342,
      "softly": 4343,
      "dangers": 4344,
      "tailor": 4345,
      "poles": 4346,
      "shoes": 4347,
      "ye": 4348,
      "lakes": 4349,
      "dropped": 4350,
      "play": 4351,
      "it": 4352,
      "trust": 4353,
      "sit": 4354,
      "fought": 4355,
      "pass": 4356,
      "countless": 4357,
      "^": 4358,
      "detective": 4359,
      "passionately": 4360,
      "le": 4361,
      "number": 4362,
      "throng": 4363,
      "while": 4364,
      "emily": 4365,
      "steel": 4366,
      "alarmed": 4367,
      "hither": 4368,
      "blue": 4369,
      "kindly": 4370,
      "evenings": 4371,
      "coat": 4372,
      "julie": 4373,
      "occupation": 4374,
      "beth": 4375,
      "uttered": 4376,
      "instrument": 4377,
      "reported": 4378,
      "parlor": 4379,
      "calling": 4380,
      "cover": 4381,
      "spirit": 4382,
      "crowd": 4383,
      "greatness": 4384,
      "jack": 4385,
      "villain": 4386,
      "rode": 4387,
      "charged": 4388,
      "washed": 4389,
      "spend": 4390,
      "slumber": 4391,
      "persuaded": 4392,
      "none": 4393,
      "existing": 4394,
      "corpse": 4395,
      "illness": 4396,
      "national": 4397,
      "consciousness": 4398,
      "betrayed": 4399,
      "priests": 4400,
      "butler": 4401,
      "firm": 4402,
      "author": 4403,
      "ways": 4404,
      "declare": 4405,
      "cousin": 4406,
      "nail": 4407,
      "knows": 4408,
      "desperately": 4409,
      "dramatic": 4410,
      "elizabeth": 4411,
      "customary": 4412,
      "dixon": 4413,
      "republic": 4414,
      "comrades": 4415,
      "counsel": 4416,
      "lots": 4417,
      "miller": 4418,
      "midst": 4419,
      "mount": 4420,
      "rapid": 4421,
      "tax": 4422,
      "bridle": 4423,
      "latter": 4424,
      "shoulders": 4425,
      "through": 4426,
      "spoiled": 4427,
      "set": 4428,
      "pious": 4429,
      "cried": 4430,
      "other's": 4431,
      "studying": 4432,
      "praying": 4433,
      "blanket": 4434,
      "christmas": 4435,
      "mingled": 4436,
      "observe": 4437,
      "near": 4438,
      "knocked": 4439,
      "lead": 4440,
      "indignant": 4441,
      "grove": 4442,
      "responded": 4443,
      "respectfully": 4444,
      "lake": 4445,
      "entertain": 4446,
      "shouting": 4447,
      "gone": 4448,
      "brethren": 4449,
      "red": 4450,
      "perish": 4451,
      "hatred": 4452,
      "generation": 4453,
      "answer": 4454,
      "dawn": 4455,
      "eternal": 4456,
      "shooting": 4457,
      "johnny": 4458,
      "exclamation": 4459,
      "lawn": 4460,
      "pulled": 4461,
      "explained": 4462,
      "soil": 4463,
      "deprived": 4464,
      "warrant": 4465,
      "attempted": 4466,
      "stove": 4467,
      "lee": 4468,
      "hope": 4469,
      "honest": 4470,
      "carriages": 4471,
      "miss": 4472,
      "resemblance": 4473,
      "justly": 4474,
      "would": 4475,
      "speedily": 4476,
      "wandered": 4477,
      "visits": 4478,
      "suspense": 4479,
      "pupils": 4480,
      "s": 4481,
      "leslie": 4482,
      "false": 4483,
      "gaunt": 4484,
      "regions": 4485,
      "your": 4486,
      "offering": 4487,
      "milk": 4488,
      "hunt": 4489,
      "oars": 4490,
      "sheets": 4491,
      "sun": 4492,
      "unpleasant": 4493,
      "world's": 4494,
      "thirty": 4495,
      "jerry": 4496,
      "dare": 4497,
      "arrangement": 4498,
      "fisherman": 4499,
      "mother": 4500,
      "outline": 4501,
      "die": 4502,
      "faith": 4503,
      "hostile": 4504,
      "plans": 4505,
      "speeches": 4506,
      "listened": 4507,
      "grant": 4508,
      "cakes": 4509,
      "cares": 4510,
      "speed": 4511,
      "slowly": 4512,
      "reverence": 4513,
      "slip": 4514,
      "complained": 4515,
      "refusal": 4516,
      "species": 4517,
      "return": 4518,
      "released": 4519,
      "covering": 4520,
      "coffin": 4521,
      "sprang": 4522,
      "complex": 4523,
      "asleep": 4524,
      "forth": 4525,
      "telling": 4526,
      "shade": 4527,
      "ornaments": 4528,
      "attendant": 4529,
      "minded": 4530,
      "san": 4531,
      "remarkably": 4532,
      "minor": 4533,
      "child": 4534,
      "policy": 4535,
      "habit": 4536,
      "ladder": 4537,
      "monarch": 4538,
      "chris": 4539,
      "visited": 4540,
      "league": 4541,
      "coloured": 4542,
      "oven": 4543,
      "grand": 4544,
      "girl": 4545,
      "englishman": 4546,
      "chains": 4547,
      "drawer": 4548,
      "heaps": 4549,
      "strictly": 4550,
      "gestures": 4551,
      "saint": 4552,
      "windows": 4553,
      "abundance": 4554,
      "suspected": 4555,
      "fifteen": 4556,
      "quit": 4557,
      "talk": 4558,
      "details": 4559,
      "e": 4560,
      "haven't": 4561,
      "intelligence": 4562,
      "pressed": 4563,
      "solitary": 4564,
      "stated": 4565,
      "mate": 4566,
      "religion": 4567,
      "idle": 4568,
      "slain": 4569,
      "skilful": 4570,
      "advantage": 4571,
      "barrier": 4572,
      "governed": 4573,
      "rolls": 4574,
      "dug": 4575,
      "hearing": 4576,
      "existed": 4577,
      "gigantic": 4578,
      "agitation": 4579,
      "kicked": 4580,
      "permitted": 4581,
      "francis": 4582,
      "down": 4583,
      "perhaps": 4584,
      "purely": 4585,
      "enter": 4586,
      "continent": 4587,
      "obey": 4588,
      "nancy": 4589,
      "everything": 4590,
      "clinging": 4591,
      "twins": 4592,
      "monk": 4593,
      "obeyed": 4594,
      "made": 4595,
      "wheel": 4596,
      "thrown": 4597,
      "renewed": 4598,
      "being": 4599,
      "leaping": 4600,
      "ends": 4601,
      "laughing": 4602,
      "teachers": 4603,
      "oppressed": 4604,
      "established": 4605,
      "pace": 4606,
      "notwithstanding": 4607,
      "tossed": 4608,
      "jackson": 4609,
      "collected": 4610,
      "pitched": 4611,
      "leaped": 4612,
      "hasty": 4613,
      "lunch": 4614,
      "reckoned": 4615,
      "policeman": 4616,
      "driver": 4617,
      "immense": 4618,
      "circumstance": 4619,
      "concern": 4620,
      "chancellor": 4621,
      "eminent": 4622,
      "fall": 4623,
      "ten": 4624,
      "i": 4625,
      "drowned": 4626,
      "colors": 4627,
      "broke": 4628,
      "bushes": 4629,
      "compare": 4630,
      "sober": 4631,
      "unwilling": 4632,
      "f": 4633,
      "hedge": 4634,
      "natasha": 4635,
      "wearing": 4636,
      "catherine": 4637,
      "experience": 4638,
      "wherefore": 4639,
      "lamb": 4640,
      "complicated": 4641,
      "did": 4642,
      "joke": 4643,
      "christ": 4644,
      "greatly": 4645,
      "starting": 4646,
      "something": 4647,
      "slow": 4648,
      "plate": 4649,
      "hesitated": 4650,
      "gloves": 4651,
      "sees": 4652,
      "execution": 4653,
      "this": 4654,
      "examine": 4655,
      "plunged": 4656,
      "song": 4657,
      "avail": 4658,
      "possession": 4659,
      "scheme": 4660,
      "ran": 4661,
      "fail": 4662,
      "b": 4663,
      "turning": 4664,
      "##l": 4665,
      "bees": 4666,
      "management": 4667,
      "ability": 4668,
      "locks": 4669,
      "tread": 4670,
      "decline": 4671,
      "otherwise": 4672,
      "desires": 4673,
      "trembling": 4674,
      "shows": 4675,
      "gazed": 4676,
      "expense": 4677,
      "consent": 4678,
      "seed": 4679,
      "mother's": 4680,
      "continued": 4681,
      "necessarily": 4682,
      "health": 4683,
      "gods": 4684,
      "condemned": 4685,
      "stake": 4686,
      "hoped": 4687,
      "tragic": 4688,
      "inquiry": 4689,
      "youthful": 4690,
      "examined": 4691,
      "companions": 4692,
      "brush": 4693,
      "completed": 4694,
      "sang": 4695,
      "presently": 4696,
      "attractive": 4697,
      "prophet": 4698,
      "sole": 4699,
      "poison": 4700,
      "journey": 4701,
      "sorrow": 4702,
      "signs": 4703,
      "fun": 4704,
      "suffered": 4705,
      "lean": 4706,
      "rise": 4707,
      "actual": 4708,
      "cautiously": 4709,
      "forehead": 4710,
      "escaped": 4711,
      "rear": 4712,
      "cases": 4713,
      "wife": 4714,
      "mood": 4715,
      "rightly": 4716,
      "protested": 4717,
      "whither": 4718,
      "costly": 4719,
      "journal": 4720,
      "crawled": 4721,
      "we": 4722,
      "unto": 4723,
      "women": 4724,
      "unconsciously": 4725,
      "great": 4726,
      "lucky": 4727,
      "straw": 4728,
      "misfortune": 4729,
      "throne": 4730,
      "boiled": 4731,
      "rosy": 4732,
      "punish": 4733,
      "information": 4734,
      "forms": 4735,
      "collar": 4736,
      "write": 4737,
      "plump": 4738,
      "smoke": 4739,
      "spent": 4740,
      "agents": 4741,
      "household": 4742,
      "vast": 4743,
      "induce": 4744,
      "dwelling": 4745,
      "ideal": 4746,
      "wildly": 4747,
      "coffee": 4748,
      "gained": 4749,
      "forces": 4750,
      "cane": 4751,
      "beat": 4752,
      "wrath": 4753,
      "faces": 4754,
      ":": 4755,
      "hired": 4756,
      "characteristic": 4757,
      "babies": 4758,
      "take": 4759,
      "hills": 4760,
      "fruit": 4761,
      "costume": 4762,
      "pains": 4763,
      "overwhelmed": 4764,
      "good": 4765,
      "promised": 4766,
      "fly": 4767,
      "familiar": 4768,
      "shelter": 4769,
      "leaves": 4770,
      "fist": 4771,
      "jealousy": 4772,
      "peace": 4773,
      "nice": 4774,
      "decide": 4775,
      "used": 4776,
      "again": 4777,
      "anyone": 4778,
      "katy": 4779,
      "secrets": 4780,
      "reward": 4781,
      "uncommon": 4782,
      "lifting": 4783,
      "purchase": 4784,
      "noise": 4785,
      "letting": 4786,
      "boot": 4787,
      "eighty": 4788,
      "opposite": 4789,
      "scene": 4790,
      "forgive": 4791,
      "fur": 4792,
      "visitors": 4793,
      "interest": 4794,
      "shut": 4795,
      "apple": 4796,
      "ceremony": 4797,
      "swung": 4798,
      "eager": 4799,
      "edge": 4800,
      "anna": 4801,
      "puts": 4802,
      "proceedings": 4803,
      "general": 4804,
      "dusty": 4805,
      "tray": 4806,
      "composed": 4807,
      "winning": 4808,
      "rod": 4809,
      "pin": 4810,
      "idiot": 4811,
      "nightingale": 4812,
      "where": 4813,
      "understood": 4814,
      "delight": 4815,
      "standard": 4816,
      "suspicious": 4817,
      "button": 4818,
      "fields": 4819,
      "granted": 4820,
      "corn": 4821,
      "dragging": 4822,
      "birds": 4823,
      "comprehend": 4824,
      "springs": 4825,
      "porthos": 4826,
      "greeted": 4827,
      "rum": 4828,
      "frown": 4829,
      "grass": 4830,
      "shadows": 4831,
      "fog": 4832,
      "wealthy": 4833,
      "culture": 4834,
      "tables": 4835,
      "favourable": 4836,
      "dinsmore": 4837,
      "harris": 4838,
      "identity": 4839,
      "solemnly": 4840,
      "charms": 4841,
      "distance": 4842,
      "support": 4843,
      "jimmie": 4844,
      "warmth": 4845,
      "##j": 4846,
      "often": 4847,
      "elevation": 4848,
      "yes": 4849,
      "followed": 4850,
      "!": 4851,
      "unless": 4852,
      "pile": 4853,
      "de": 4854,
      "groan": 4855,
      "messenger": 4856,
      "harness": 4857,
      "breton": 4858,
      "associated": 4859,
      "downstairs": 4860,
      "waved": 4861,
      "effects": 4862,
      "mistakes": 4863,
      "labour": 4864,
      "somewhat": 4865,
      "funeral": 4866,
      "##9": 4867,
      "happened": 4868,
      "distress": 4869,
      "studies": 4870,
      "depart": 4871,
      "conclude": 4872,
      "gives": 4873,
      "goddess": 4874,
      "sacred": 4875,
      "rejoice": 4876,
      "breeze": 4877,
      "application": 4878,
      "weight": 4879,
      "treat": 4880,
      "doors": 4881,
      "i'll": 4882,
      "pillow": 4883,
      "lo": 4884,
      "leg": 4885,
      "empire": 4886,
      "cats": 4887,
      "ocean": 4888,
      "considerations": 4889,
      "laws": 4890,
      "ninety": 4891,
      "suffering": 4892,
      "ending": 4893,
      "accompanied": 4894,
      "very": 4895,
      "smoking": 4896,
      "them": 4897,
      "grain": 4898,
      "&": 4899,
      "invited": 4900,
      "entertained": 4901,
      "william": 4902,
      "confident": 4903,
      "engineer": 4904,
      "leisure": 4905,
      "butter": 4906,
      "stare": 4907,
      "cooking": 4908,
      "kissed": 4909,
      "lord": 4910,
      "history": 4911,
      "grasped": 4912,
      "thomas": 4913,
      "ha": 4914,
      "manners": 4915,
      "traced": 4916,
      "natured": 4917,
      "iron": 4918,
      "fat": 4919,
      "invented": 4920,
      "weariness": 4921,
      "##s": 4922,
      "neighbouring": 4923,
      "feminine": 4924,
      "island": 4925,
      "attention": 4926,
      "night's": 4927,
      "peasant": 4928,
      "yours": 4929,
      "insects": 4930,
      "pronounced": 4931,
      "tore": 4932,
      "seat": 4933,
      "conseil": 4934,
      "intensely": 4935,
      "noon": 4936,
      "received": 4937,
      "intelligent": 4938,
      "engagement": 4939,
      "sunrise": 4940,
      "separated": 4941,
      "grasp": 4942,
      "gleaming": 4943,
      "sincerely": 4944,
      "border": 4945,
      "offered": 4946,
      "square": 4947,
      "europe": 4948,
      "valley": 4949,
      "argument": 4950,
      "notes": 4951,
      "put": 4952,
      "owing": 4953,
      "prince": 4954,
      "nor": 4955,
      "ghost": 4956,
      "plane": 4957,
      "meetings": 4958,
      "flower": 4959,
      "interests": 4960,
      "hail": 4961,
      "porch": 4962,
      "briefly": 4963,
      "differently": 4964,
      "cure": 4965,
      "ruby": 4966,
      "emotions": 4967,
      "cave": 4968,
      "august": 4969,
      "hurried": 4970,
      "clock": 4971,
      "enabled": 4972,
      "probably": 4973,
      "strode": 4974,
      "george": 4975,
      "remain": 4976,
      "nurse": 4977,
      "enable": 4978,
      "birth": 4979,
      "affair": 4980,
      "carpet": 4981,
      "coward": 4982,
      "common": 4983,
      "isle": 4984,
      "nodded": 4985,
      "lofty": 4986,
      "critical": 4987,
      "watson": 4988,
      "can't": 4989,
      "view": 4990,
      "cloth": 4991,
      "pepper": 4992,
      "influence": 4993,
      "rent": 4994,
      "wonders": 4995,
      "anguish": 4996,
      "profit": 4997,
      "mortal": 4998,
      "expensive": 4999,
      "craft": 5000,
      "attendants": 5001,
      "defended": 5002,
      "independent": 5003,
      "martha": 5004,
      "manly": 5005,
      "climb": 5006,
      "pilot": 5007,
      "angel": 5008,
      "greater": 5009,
      "awfully": 5010,
      "cap'n": 5011,
      "faithful": 5012,
      "suitable": 5013,
      "fool": 5014,
      "prevailed": 5015,
      "pierre": 5016,
      "marching": 5017,
      "sleeve": 5018,
      "paces": 5019,
      "crowds": 5020,
      "setting": 5021,
      "rail": 5022,
      "wounded": 5023,
      "lowered": 5024,
      "apply": 5025,
      "humor": 5026,
      "assured": 5027,
      "host": 5028,
      "wondrous": 5029,
      "sunday": 5030,
      "stolen": 5031,
      "year": 5032,
      "paste": 5033,
      "sitting": 5034,
      "candle": 5035,
      "bore": 5036,
      "brings": 5037,
      "swell": 5038,
      "flies": 5039,
      "flush": 5040,
      "bears": 5041,
      "mississippi": 5042,
      "detail": 5043,
      "pan": 5044,
      "thy": 5045,
      "looked": 5046,
      "one's": 5047,
      "returns": 5048,
      "jesus": 5049,
      "proof": 5050,
      "spirits": 5051,
      "art": 5052,
      "indifferent": 5053,
      "mere": 5054,
      "tomb": 5055,
      "permission": 5056,
      "editor": 5057,
      "sheep": 5058,
      "electric": 5059,
      "folk": 5060,
      "remarkable": 5061,
      "horror": 5062,
      "leather": 5063,
      "you're": 5064,
      "deeper": 5065,
      "confidence": 5066,
      "shudder": 5067,
      "friday": 5068,
      "battery": 5069,
      "wagon": 5070,
      "arts": 5071,
      "##4": 5072,
      "depend": 5073,
      "defense": 5074,
      "sell": 5075,
      "outward": 5076,
      "cutting": 5077,
      "packed": 5078,
      "painfully": 5079,
      "log": 5080,
      "when": 5081,
      "beginning": 5082,
      "hotel": 5083,
      "revealed": 5084,
      "several": 5085,
      "linen": 5086,
      "damage": 5087,
      "shell": 5088,
      "sons": 5089,
      "shone": 5090,
      "lock": 5091,
      "yielded": 5092,
      "sign": 5093,
      "#": 5094,
      "husband": 5095,
      "attend": 5096,
      "accent": 5097,
      "somewhere": 5098,
      "interval": 5099,
      "essentially": 5100,
      "purpose": 5101,
      "choked": 5102,
      "guest": 5103,
      "hunters": 5104,
      "blame": 5105,
      "bacon": 5106,
      "warrior": 5107,
      "touch": 5108,
      "surprise": 5109,
      "leonora": 5110,
      "language": 5111,
      "denied": 5112,
      "resist": 5113,
      "wretched": 5114,
      "cargo": 5115,
      "procession": 5116,
      "downward": 5117,
      "pay": 5118,
      "winter": 5119,
      "slightly": 5120,
      "lad": 5121,
      "recent": 5122,
      "surrounding": 5123,
      "questioned": 5124,
      "spiritual": 5125,
      "wolves": 5126,
      "stool": 5127,
      "embraced": 5128,
      "blind": 5129,
      "laying": 5130,
      "=": 5131,
      "diana": 5132,
      "finished": 5133,
      "dolly": 5134,
      "ages": 5135,
      "respects": 5136,
      "double": 5137,
      "whether": 5138,
      "equally": 5139,
      "excess": 5140,
      "moment": 5141,
      "monkey": 5142,
      "collection": 5143,
      "surely": 5144,
      "hereafter": 5145,
      "comparatively": 5146,
      "boast": 5147,
      "watched": 5148,
      "creature": 5149,
      "sea": 5150,
      "intently": 5151,
      "fired": 5152,
      "'": 5153,
      "special": 5154,
      "obviously": 5155,
      "4": 5156,
      "floated": 5157,
      "features": 5158,
      "propose": 5159,
      "address": 5160,
      "apples": 5161,
      "fits": 5162,
      "obscure": 5163,
      "arrived": 5164,
      "best": 5165,
      "in": 5166,
      "awaited": 5167,
      "longed": 5168,
      "justice": 5169,
      "harder": 5170,
      "bleeding": 5171,
      "including": 5172,
      "disposition": 5173,
      "waking": 5174,
      "dish": 5175,
      "circular": 5176,
      "exceedingly": 5177,
      "boughs": 5178,
      "fatigue": 5179,
      "bitterly": 5180,
      "probability": 5181,
      "intercourse": 5182,
      "game": 5183,
      "dining": 5184,
      "channel": 5185,
      "entered": 5186,
      "neighbour": 5187,
      "destruction": 5188,
      "brothers": 5189,
      "published": 5190,
      "_": 5191,
      "decidedly": 5192,
      "solid": 5193,
      "judgment": 5194,
      "scarecrow": 5195,
      "waited": 5196,
      "presence": 5197,
      "orchard": 5198,
      "noble": 5199,
      "deep": 5200,
      "farmers": 5201,
      "however": 5202,
      "build": 5203,
      "angry": 5204,
      "-": 5205,
      "hitherto": 5206,
      "liquid": 5207,
      "plainly": 5208,
      "exciting": 5209,
      "trained": 5210,
      "previously": 5211,
      "feels": 5212,
      "following": 5213,
      "ship": 5214,
      "roses": 5215,
      "shalt": 5216,
      "imperial": 5217,
      "chuckled": 5218,
      "susan": 5219,
      "strict": 5220,
      "passionate": 5221,
      "product": 5222,
      "worthy": 5223,
      "pick": 5224,
      "cathedral": 5225,
      "concerning": 5226,
      "honour": 5227,
      "greek": 5228,
      "conviction": 5229,
      "ceased": 5230,
      "time": 5231,
      "treatment": 5232,
      "spreading": 5233,
      "states": 5234,
      "freedom": 5235,
      "doctor's": 5236,
      "production": 5237,
      "roman": 5238,
      "shield": 5239,
      "dew": 5240,
      "poor": 5241,
      "teach": 5242,
      "swept": 5243,
      "differ": 5244,
      "pencil": 5245,
      "limited": 5246,
      "loving": 5247,
      "arrive": 5248,
      "ah": 5249,
      "teacher": 5250,
      "employ": 5251,
      "conflict": 5252,
      "design": 5253,
      "cool": 5254,
      "half": 5255,
      "previous": 5256,
      "yielding": 5257,
      "sweet": 5258,
      "intent": 5259,
      "total": 5260,
      "disposal": 5261,
      "intensity": 5262,
      "artists": 5263,
      "cab": 5264,
      "ceiling": 5265,
      "earl": 5266,
      "precisely": 5267,
      "suppressed": 5268,
      "repose": 5269,
      "still": 5270,
      "cause": 5271,
      "contrived": 5272,
      "office": 5273,
      "filled": 5274,
      "intellect": 5275,
      "duke": 5276,
      "shrill": 5277,
      "safety": 5278,
      "bags": 5279,
      "supplies": 5280,
      "marvelous": 5281,
      "riding": 5282,
      "garden": 5283,
      "cooked": 5284,
      "insult": 5285,
      "they'll": 5286,
      "wilt": 5287,
      "sudden": 5288,
      "physical": 5289,
      "fish": 5290,
      "cup": 5291,
      "monster": 5292,
      "boys": 5293,
      "tavern": 5294,
      "carved": 5295,
      "richly": 5296,
      "hollow": 5297,
      "uneasiness": 5298,
      "waiting": 5299,
      "venerable": 5300,
      "positively": 5301,
      "you'd": 5302,
      "rice": 5303,
      "retired": 5304,
      "became": 5305,
      "turns": 5306,
      "settled": 5307,
      "staying": 5308,
      "climbing": 5309,
      "draw": 5310,
      "countenance": 5311,
      "negro": 5312,
      "snapped": 5313,
      "dunbar": 5314,
      "wishing": 5315,
      "way": 5316,
      "you": 5317,
      "function": 5318,
      "missed": 5319,
      "gardener": 5320,
      "|": 5321,
      "whistle": 5322,
      "obstacle": 5323,
      "occasions": 5324,
      "motionless": 5325,
      "quick": 5326,
      "artificial": 5327,
      "lover": 5328,
      "plan": 5329,
      "et": 5330,
      "stronger": 5331,
      "removed": 5332,
      "likes": 5333,
      "leads": 5334,
      "seem": 5335,
      "travel": 5336,
      "grateful": 5337,
      "thinking": 5338,
      "difficult": 5339,
      "task": 5340,
      "clay": 5341,
      "ay": 5342,
      "devotion": 5343,
      "deck": 5344,
      "attract": 5345,
      "neither": 5346,
      "overcome": 5347,
      "respectable": 5348,
      "placing": 5349,
      "subject": 5350,
      "favour": 5351,
      "dressing": 5352,
      "join": 5353,
      "anywhere": 5354,
      "esteem": 5355,
      "doris": 5356,
      "bowed": 5357,
      "gratitude": 5358,
      "lift": 5359,
      "responsibility": 5360,
      "prominent": 5361,
      "friendship": 5362,
      "created": 5363,
      "endowed": 5364,
      "avoided": 5365,
      "after": 5366,
      "mistaken": 5367,
      "n": 5368,
      "plates": 5369,
      "car": 5370,
      "it'll": 5371,
      "grew": 5372,
      "open": 5373,
      "kneeling": 5374,
      "gloomy": 5375,
      "symptoms": 5376,
      "dealing": 5377,
      "too": 5378,
      "thereby": 5379,
      "hunter": 5380,
      "fountain": 5381,
      "twentieth": 5382,
      "event": 5383,
      "ireland": 5384,
      "intentions": 5385,
      "striving": 5386,
      "around": 5387,
      "cease": 5388,
      "witness": 5389,
      "universal": 5390,
      "believing": 5391,
      "evening": 5392,
      "manner": 5393,
      "interfere": 5394,
      "felt": 5395,
      "tramp": 5396,
      "sensations": 5397,
      "certain": 5398,
      "passions": 5399,
      "giving": 5400,
      "tea": 5401,
      "homes": 5402,
      "danced": 5403,
      "million": 5404,
      "fright": 5405,
      "blast": 5406,
      "absence": 5407,
      "returning": 5408,
      "age": 5409,
      "horizon": 5410,
      "joe": 5411,
      "writing": 5412,
      "slipping": 5413,
      "parts": 5414,
      "lies": 5415,
      "amiable": 5416,
      "killing": 5417,
      "suited": 5418,
      "knock": 5419,
      "turf": 5420,
      "provided": 5421,
      "humble": 5422,
      "`": 5423,
      "chambers": 5424,
      "horseback": 5425,
      "assisted": 5426,
      "nobody": 5427,
      "horses": 5428,
      "convinced": 5429,
      "leaned": 5430,
      "machinery": 5431,
      "branches": 5432,
      "pitch": 5433,
      "roof": 5434,
      "patty": 5435,
      "assault": 5436,
      "turned": 5437,
      "accustomed": 5438,
      "altogether": 5439,
      "farther": 5440,
      "freed": 5441,
      "volume": 5442,
      "daylight": 5443,
      "success": 5444,
      "adjoining": 5445,
      "administration": 5446,
      "spoke": 5447,
      "##c": 5448,
      "sixth": 5449,
      "ruin": 5450,
      "helen": 5451,
      "strength": 5452,
      "point": 5453,
      "simple": 5454,
      "shocked": 5455,
      "charge": 5456,
      "brother's": 5457,
      "mines": 5458,
      "enthusiasm": 5459,
      "albert": 5460,
      "literary": 5461,
      "never": 5462,
      "meeting": 5463,
      "spare": 5464,
      "furnished": 5465,
      "rue": 5466,
      "smart": 5467,
      "salt": 5468,
      "nineteenth": 5469,
      "##b": 5470,
      "abruptly": 5471,
      "proofs": 5472,
      "observation": 5473,
      "tell": 5474,
      "favourite": 5475,
      "means": 5476,
      "edison": 5477,
      "frighten": 5478,
      "business": 5479,
      "remained": 5480,
      "hath": 5481,
      "basket": 5482,
      "intended": 5483,
      "occupy": 5484,
      "jest": 5485,
      "kind": 5486,
      "murderer": 5487,
      "least": 5488,
      "sacrifice": 5489,
      "slept": 5490,
      "handkerchief": 5491,
      "split": 5492,
      "dearly": 5493,
      "guardian": 5494,
      "rejoiced": 5495,
      "moon": 5496,
      "male": 5497,
      "quaint": 5498,
      "melancholy": 5499,
      "he": 5500,
      "frequent": 5501,
      "dreadfully": 5502,
      "porter": 5503,
      "pursue": 5504,
      "thirsty": 5505,
      "tremendous": 5506,
      "stealing": 5507,
      "chicago": 5508,
      "aren't": 5509,
      "suggestion": 5510,
      "observations": 5511,
      "reaching": 5512,
      "occupied": 5513,
      "undertake": 5514,
      "able": 5515,
      "alike": 5516,
      "refrain": 5517,
      "court": 5518,
      "ghastly": 5519,
      "prove": 5520,
      "owl": 5521,
      "chapter": 5522,
      "saving": 5523,
      "route": 5524,
      "shame": 5525,
      "tradition": 5526,
      "pursuit": 5527,
      "instance": 5528,
      "sticking": 5529,
      "vigorous": 5530,
      "superior": 5531,
      "roll": 5532,
      "trap": 5533,
      "herd": 5534,
      "sealed": 5535,
      "shore": 5536,
      "crisis": 5537,
      "lives": 5538,
      "leaf": 5539,
      "thicket": 5540,
      "fox": 5541,
      "fathers": 5542,
      "italian": 5543,
      "rebecca": 5544,
      "inside": 5545,
      "relatives": 5546,
      "key": 5547,
      "events": 5548,
      "bit": 5549,
      "reserved": 5550,
      "mouse": 5551,
      "excuse": 5552,
      "andrea": 5553,
      "weather": 5554,
      "fears": 5555,
      "##k": 5556,
      "departed": 5557,
      "spot": 5558,
      "somehow": 5559,
      "closely": 5560,
      "ourselves": 5561,
      "delightful": 5562,
      "davy": 5563,
      "recalled": 5564,
      "keeper": 5565,
      "kiss": 5566,
      "yourself": 5567,
      "subjects": 5568,
      "cannot": 5569,
      "sheet": 5570,
      "devoted": 5571,
      "muscular": 5572,
      "washington": 5573,
      "brick": 5574,
      "didn't": 5575,
      "terms": 5576,
      "needs": 5577,
      "poured": 5578,
      "affectionate": 5579,
      "left": 5580,
      "discussing": 5581,
      "harsh": 5582,
      "strait": 5583,
      "cake": 5584,
      "frozen": 5585,
      "myles": 5586,
      "\\": 5587,
      "despise": 5588,
      "continually": 5589,
      "ears": 5590,
      "escape": 5591,
      "considerable": 5592,
      "confession": 5593,
      "shots": 5594,
      "noticed": 5595,
      "who": 5596,
      "laughter": 5597,
      "amuse": 5598,
      "vessels": 5599,
      "deadly": 5600,
      "dreaded": 5601,
      "serene": 5602,
      "waist": 5603,
      "wheat": 5604,
      "impatience": 5605,
      "taste": 5606,
      "jove": 5607,
      "college": 5608,
      "halted": 5609,
      "delicacy": 5610,
      "dishes": 5611,
      "courtyard": 5612,
      "silly": 5613,
      "swamp": 5614,
      "prosperity": 5615,
      "ear": 5616,
      "mantle": 5617,
      "eve": 5618,
      "columns": 5619,
      "chorus": 5620,
      "growing": 5621,
      "depended": 5622,
      "excellent": 5623,
      "council": 5624,
      "attacked": 5625,
      "himself": 5626,
      "spell": 5627,
      "stuff": 5628,
      "endured": 5629,
      "temptation": 5630,
      "tis": 5631,
      "rose": 5632,
      "any": 5633,
      "oxford": 5634,
      "congress": 5635,
      "distinguished": 5636,
      "feelings": 5637,
      "retorted": 5638,
      "blank": 5639,
      "entirely": 5640,
      "bosom": 5641,
      "regretted": 5642,
      "dirty": 5643,
      "seeming": 5644,
      "strangers": 5645,
      "torn": 5646,
      "settling": 5647,
      "thought": 5648,
      "forward": 5649,
      "sunshine": 5650,
      "carefully": 5651,
      "lords": 5652,
      "drifted": 5653,
      "slid": 5654,
      "temperament": 5655,
      "clad": 5656,
      "promises": 5657,
      "avenue": 5658,
      "nowhere": 5659,
      "soap": 5660,
      "cherished": 5661,
      "youngest": 5662,
      "material": 5663,
      "grey": 5664,
      "sung": 5665,
      "unconscious": 5666,
      "tulliver": 5667,
      "feature": 5668,
      "try": 5669,
      "prairie": 5670,
      "test": 5671,
      "affected": 5672,
      "retained": 5673,
      "building": 5674,
      "ventured": 5675,
      "fairly": 5676,
      "they'd": 5677,
      "conception": 5678,
      "green": 5679,
      "i've": 5680,
      "interrupted": 5681,
      "independence": 5682,
      "account": 5683,
      "defeat": 5684,
      "circles": 5685,
      "life": 5686,
      "armor": 5687,
      "bill": 5688,
      "moreover": 5689,
      "employment": 5690,
      "pole": 5691,
      "abundant": 5692,
      "withered": 5693,
      "what": 5694,
      "carry": 5695,
      "church": 5696,
      "hungry": 5697,
      "launcelot": 5698,
      "harmless": 5699,
      "caution": 5700,
      "keeps": 5701,
      "reflecting": 5702,
      "student": 5703,
      "abyss": 5704,
      "measure": 5705,
      "masters": 5706,
      "parties": 5707,
      "ain't": 5708,
      "anticipated": 5709,
      "must": 5710,
      "guarded": 5711,
      "saw": 5712,
      "confessed": 5713,
      "mule": 5714,
      "they've": 5715,
      "sufficient": 5716,
      "mice": 5717,
      "athos": 5718,
      "santa": 5719,
      "workers": 5720,
      "five": 5721,
      "infant": 5722,
      "d": 5723,
      "ere": 5724,
      "rome": 5725,
      "terrified": 5726,
      "patiently": 5727,
      "depth": 5728,
      "drunk": 5729,
      "contain": 5730,
      "disturbance": 5731,
      "executed": 5732,
      "absolute": 5733,
      "producing": 5734,
      "grief": 5735,
      "enjoyment": 5736,
      "virginia": 5737,
      "lit": 5738,
      "satisfactory": 5739,
      "likeness": 5740,
      "suffer": 5741,
      "happiest": 5742,
      "modern": 5743,
      "paradise": 5744,
      "struggling": 5745,
      "instruments": 5746,
      "things": 5747,
      "fifteenth": 5748,
      "mustn't": 5749,
      "say": 5750,
      "amidst": 5751,
      "venice": 5752,
      "done": 5753,
      "mistake": 5754,
      "plague": 5755,
      "secondly": 5756,
      "bargain": 5757,
      "applause": 5758,
      "remembrance": 5759,
      "wax": 5760,
      "found": 5761,
      "emma": 5762,
      "perceval": 5763,
      "institution": 5764,
      "poem": 5765,
      "delayed": 5766,
      "apartments": 5767,
      "select": 5768,
      "orange": 5769,
      "gallant": 5770,
      "flood": 5771,
      "instructions": 5772,
      "guns": 5773,
      "old": 5774,
      "swiftly": 5775,
      "traveller": 5776,
      "respectful": 5777,
      "reign": 5778,
      "crow": 5779,
      "rob": 5780,
      "fatal": 5781,
      "aloud": 5782,
      "succeeded": 5783,
      "inhabited": 5784,
      "deed": 5785,
      "shells": 5786,
      "two": 5787,
      "continue": 5788,
      "discipline": 5789,
      "prize": 5790,
      "additional": 5791,
      "spaniards": 5792,
      "pond": 5793,
      "intervals": 5794,
      "tried": 5795,
      "making": 5796,
      "sir": 5797,
      "ridiculous": 5798,
      "daughter's": 5799,
      "highness": 5800,
      "thoughtfully": 5801,
      "curtain": 5802,
      "mac": 5803,
      "gift": 5804,
      "oak": 5805,
      "\"": 5806,
      "between": 5807,
      "carried": 5808,
      "heels": 5809,
      "billy": 5810,
      "modesty": 5811,
      "anne": 5812,
      "jerusalem": 5813,
      "hans": 5814,
      "hind": 5815,
      "r": 5816,
      "tommy": 5817,
      "egypt": 5818,
      "asked": 5819,
      "thereof": 5820,
      "sources": 5821,
      "##y": 5822,
      "cow": 5823,
      "searching": 5824,
      "halls": 5825,
      "spoken": 5826,
      "becomes": 5827,
      "muscles": 5828,
      "breath": 5829,
      "rock": 5830,
      "snake": 5831,
      "create": 5832,
      "disguise": 5833,
      "attain": 5834,
      "whereas": 5835,
      "goat": 5836,
      "thrust": 5837,
      "locked": 5838,
      "awoke": 5839,
      "behold": 5840,
      "james": 5841,
      "degree": 5842,
      "musical": 5843,
      "victory": 5844,
      "rubbed": 5845,
      "alice": 5846,
      "eh": 5847,
      "deliberately": 5848,
      "deny": 5849,
      "cook": 5850,
      "glacier": 5851,
      "pleaded": 5852,
      "thread": 5853,
      "arthur": 5854,
      "hugh": 5855,
      "shaggy": 5856,
      "tempted": 5857,
      "shapes": 5858,
      "attempt": 5859,
      "sergeant": 5860,
      "alarm": 5861,
      "consumption": 5862,
      "types": 5863,
      "not": 5864,
      "whip": 5865,
      "indifference": 5866,
      "extra": 5867,
      "tenderness": 5868,
      "needle": 5869,
      "wiser": 5870,
      "discover": 5871,
      "pressing": 5872,
      "elsie": 5873,
      "brief": 5874,
      "leave": 5875,
      "press": 5876,
      "thunder": 5877,
      "gesture": 5878,
      "book": 5879,
      "losing": 5880,
      "rivers": 5881,
      "swear": 5882,
      "bath": 5883,
      "avoid": 5884,
      "whatever": 5885,
      "petersburg": 5886,
      "she'd": 5887,
      "she's": 5888,
      "miserable": 5889,
      "human": 5890,
      "sofa": 5891,
      "changes": 5892,
      "passes": 5893,
      "proposition": 5894,
      "strokes": 5895,
      "intention": 5896,
      "ended": 5897,
      "sullen": 5898,
      "closed": 5899,
      "mysteries": 5900,
      "inclination": 5901,
      "determined": 5902,
      "gravel": 5903,
      "verily": 5904,
      "out": 5905,
      "nay": 5906,
      "bundle": 5907,
      "frock": 5908,
      "laid": 5909,
      "laden": 5910,
      "magician": 5911,
      "fight": 5912,
      "load": 5913,
      "barrel": 5914,
      "struggle": 5915,
      "husband's": 5916,
      "endeavored": 5917,
      "offended": 5918,
      "silence": 5919,
      "exclaimed": 5920,
      "china": 5921,
      "stout": 5922,
      "unlike": 5923,
      "sprung": 5924,
      "northern": 5925,
      "shallow": 5926,
      "germany": 5927,
      "churches": 5928,
      "liquor": 5929,
      "mid": 5930,
      "sandy": 5931,
      "republican": 5932,
      "clouds": 5933,
      "enemies": 5934,
      "fundamental": 5935,
      "right": 5936,
      "hearth": 5937,
      "bobby": 5938,
      "perceived": 5939,
      "bursting": 5940,
      "rabbit": 5941,
      "contrary": 5942,
      "knelt": 5943,
      "boat": 5944,
      "advised": 5945,
      "drama": 5946,
      "clasped": 5947,
      "save": 5948,
      "behaved": 5949,
      "people": 5950,
      "er": 5951,
      "sorry": 5952,
      "december": 5953,
      "month": 5954,
      "cracked": 5955,
      "intense": 5956,
      "shout": 5957,
      "condition": 5958,
      "combined": 5959,
      "wrapped": 5960,
      "lily": 5961,
      "dependent": 5962,
      "served": 5963,
      "angrily": 5964,
      "expressed": 5965,
      "medicine": 5966,
      "bodies": 5967,
      "learned": 5968,
      "mountains": 5969,
      "sought": 5970,
      "fixed": 5971,
      "alert": 5972,
      "consented": 5973,
      "station": 5974,
      "wine": 5975,
      "beer": 5976,
      "justified": 5977,
      "jacket": 5978,
      "one": 5979,
      "is": 5980,
      "agony": 5981,
      "south": 5982,
      "answered": 5983,
      "given": 5984,
      "limb": 5985,
      "succession": 5986,
      "sped": 5987,
      "assistance": 5988,
      "absorbed": 5989,
      "cash": 5990,
      "department": 5991,
      "cared": 5992,
      "room": 5993,
      "whose": 5994,
      "kin": 5995,
      "everywhere": 5996,
      "jew": 5997,
      "exposed": 5998,
      "concerns": 5999,
      "robin": 6000,
      "backed": 6001,
      "interested": 6002,
      "president": 6003,
      "union": 6004,
      "exchanged": 6005,
      "reflection": 6006,
      "claimed": 6007,
      "worse": 6008,
      "morgan": 6009,
      "belt": 6010,
      "ministers": 6011,
      "choice": 6012,
      "continual": 6013,
      "larger": 6014,
      "arguments": 6015,
      "deserves": 6016,
      "push": 6017,
      "pigs": 6018,
      "robber": 6019,
      "excite": 6020,
      "head": 6021,
      "raising": 6022,
      "lot": 6023,
      "settlement": 6024,
      "colours": 6025,
      "neighbourhood": 6026,
      "chair": 6027,
      "ropes": 6028,
      "ever": 6029,
      "breathe": 6030,
      "started": 6031,
      "situation": 6032,
      "wait": 6033,
      "palm": 6034,
      "sustained": 6035,
      "commissioner": 6036,
      "supposed": 6037,
      "proposed": 6038,
      "consulted": 6039,
      "possibly": 6040,
      "thence": 6041,
      "villages": 6042,
      "member": 6043,
      "upper": 6044,
      "connected": 6045,
      "dreary": 6046,
      "education": 6047,
      "greatest": 6048,
      "stones": 6049,
      "harmony": 6050,
      "send": 6051,
      "sailor": 6052,
      "greece": 6053,
      "standing": 6054,
      "celebrated": 6055,
      "begin": 6056,
      "swim": 6057,
      "reach": 6058,
      "cart": 6059,
      "books": 6060,
      "conditions": 6061,
      "suggested": 6062,
      "brilliant": 6063,
      "consult": 6064,
      "permanent": 6065,
      "medium": 6066,
      "towards": 6067,
      "particulars": 6068,
      "kinds": 6069,
      "talks": 6070,
      "gate": 6071,
      "withdrew": 6072,
      "got": 6073,
      "sadness": 6074,
      "commonly": 6075,
      "home": 6076,
      "objects": 6077,
      "many": 6078,
      "##r": 6079,
      "birthday": 6080,
      "grin": 6081,
      "please": 6082,
      "{": 6083,
      "blushing": 6084,
      "pudding": 6085,
      "desk": 6086,
      "consequence": 6087,
      "election": 6088
    }
  }
}